<pad>	0
<unk>	0
<s>	0
</s>	0
<|system|>	0
<|user|>	0
<|assistant|>	0
<|end|>	0
<0x00>	0
<0x01>	0
<0x02>	0
<0x03>	0
<0x04>	0
<0x05>	0
<0x06>	0
<0x07>	0
<0x08>	0
<0x09>	0
<0x0A>	0
<0x0B>	0
<0x0C>	0
<0x0D>	0
<0x0E>	0
<0x0F>	0
<0x10>	0
<0x11>	0
<0x12>	0
<0x13>	0
<0x14>	0
<0x15>	0
<0x16>	0
<0x17>	0
<0x18>	0
<0x19>	0
<0x1A>	0
<0x1B>	0
<0x1C>	0
<0x1D>	0
<0x1E>	0
<0x1F>	0
<0x20>	0
<0x21>	0
<0x22>	0
<0x23>	0
<0x24>	0
<0x25>	0
<0x26>	0
<0x27>	0
<0x28>	0
<0x29>	0
<0x2A>	0
<0x2B>	0
<0x2C>	0
<0x2D>	0
<0x2E>	0
<0x2F>	0
<0x30>	0
<0x31>	0
<0x32>	0
<0x33>	0
<0x34>	0
<0x35>	0
<0x36>	0
<0x37>	0
<0x38>	0
<0x39>	0
<0x3A>	0
<0x3B>	0
<0x3C>	0
<0x3D>	0
<0x3E>	0
<0x3F>	0
<0x40>	0
<0x41>	0
<0x42>	0
<0x43>	0
<0x44>	0
<0x45>	0
<0x46>	0
<0x47>	0
<0x48>	0
<0x49>	0
<0x4A>	0
<0x4B>	0
<0x4C>	0
<0x4D>	0
<0x4E>	0
<0x4F>	0
<0x50>	0
<0x51>	0
<0x52>	0
<0x53>	0
<0x54>	0
<0x55>	0
<0x56>	0
<0x57>	0
<0x58>	0
<0x59>	0
<0x5A>	0
<0x5B>	0
<0x5C>	0
<0x5D>	0
<0x5E>	0
<0x5F>	0
<0x60>	0
<0x61>	0
<0x62>	0
<0x63>	0
<0x64>	0
<0x65>	0
<0x66>	0
<0x67>	0
<0x68>	0
<0x69>	0
<0x6A>	0
<0x6B>	0
<0x6C>	0
<0x6D>	0
<0x6E>	0
<0x6F>	0
<0x70>	0
<0x71>	0
<0x72>	0
<0x73>	0
<0x74>	0
<0x75>	0
<0x76>	0
<0x77>	0
<0x78>	0
<0x79>	0
<0x7A>	0
<0x7B>	0
<0x7C>	0
<0x7D>	0
<0x7E>	0
<0x7F>	0
<0x80>	0
<0x81>	0
<0x82>	0
<0x83>	0
<0x84>	0
<0x85>	0
<0x86>	0
<0x87>	0
<0x88>	0
<0x89>	0
<0x8A>	0
<0x8B>	0
<0x8C>	0
<0x8D>	0
<0x8E>	0
<0x8F>	0
<0x90>	0
<0x91>	0
<0x92>	0
<0x93>	0
<0x94>	0
<0x95>	0
<0x96>	0
<0x97>	0
<0x98>	0
<0x99>	0
<0x9A>	0
<0x9B>	0
<0x9C>	0
<0x9D>	0
<0x9E>	0
<0x9F>	0
<0xA0>	0
<0xA1>	0
<0xA2>	0
<0xA3>	0
<0xA4>	0
<0xA5>	0
<0xA6>	0
<0xA7>	0
<0xA8>	0
<0xA9>	0
<0xAA>	0
<0xAB>	0
<0xAC>	0
<0xAD>	0
<0xAE>	0
<0xAF>	0
<0xB0>	0
<0xB1>	0
<0xB2>	0
<0xB3>	0
<0xB4>	0
<0xB5>	0
<0xB6>	0
<0xB7>	0
<0xB8>	0
<0xB9>	0
<0xBA>	0
<0xBB>	0
<0xBC>	0
<0xBD>	0
<0xBE>	0
<0xBF>	0
<0xC0>	0
<0xC1>	0
<0xC2>	0
<0xC3>	0
<0xC4>	0
<0xC5>	0
<0xC6>	0
<0xC7>	0
<0xC8>	0
<0xC9>	0
<0xCA>	0
<0xCB>	0
<0xCC>	0
<0xCD>	0
<0xCE>	0
<0xCF>	0
<0xD0>	0
<0xD1>	0
<0xD2>	0
<0xD3>	0
<0xD4>	0
<0xD5>	0
<0xD6>	0
<0xD7>	0
<0xD8>	0
<0xD9>	0
<0xDA>	0
<0xDB>	0
<0xDC>	0
<0xDD>	0
<0xDE>	0
<0xDF>	0
<0xE0>	0
<0xE1>	0
<0xE2>	0
<0xE3>	0
<0xE4>	0
<0xE5>	0
<0xE6>	0
<0xE7>	0
<0xE8>	0
<0xE9>	0
<0xEA>	0
<0xEB>	0
<0xEC>	0
<0xED>	0
<0xEE>	0
<0xEF>	0
<0xF0>	0
<0xF1>	0
<0xF2>	0
<0xF3>	0
<0xF4>	0
<0xF5>	0
<0xF6>	0
<0xF7>	0
<0xF8>	0
<0xF9>	0
<0xFA>	0
<0xFB>	0
<0xFC>	0
<0xFD>	0
<0xFE>	0
<0xFF>	0
in	-0
▁t	-1
er	-2
an	-3
ar	-4
en	-5
▁b	-6
▁s	-7
▁o	-8
▁a	-9
he	-10
--	-11
on	-12
▁d	-13
at	-14
▁i	-15
le	-16
ir	-17
or	-18
es	-19
al	-20
▁y	-21
▁the	-22
▁k	-23
ın	-24
ed	-25
▁m	-26
il	-27
▁w	-28
as	-29
▁c	-30
▁g	-31
et	-32
▁f	-33
is	-34
▁h	-35
ak	-36
un	-37
ve	-38
▁p	-39
el	-40
it	-41
----	-42
om	-43
==	-44
lar	-45
▁to	-46
ur	-47
ing	-48
am	-49
ay	-50
im	-51
▁an	-52
de	-53
▁in	-54
ou	-55
re	-56
▁n	-57
ad	-58
ik	-59
▁th	-60
ek	-61
▁*	-62
▁ve	-63
st	-64
ler	-65
▁of	-66
ion	-67
▁"	-68
▁A	-69
ic	-70
ır	-71
ul	-72
▁e	-73
▁is	-74
da	-75
▁bir	-76
ol	-77
▁T	-78
ent	-79
em	-80
▁l	-81
ec	-82
us	-83
ac	-84
▁B	-85
iy	-86
ıl	-87
▁ol	-88
ut	-89
ot	-90
▁M	-91
--------	-92
▁and	-93
▁(	-94
▁r	-95
ün	-96
▁ar	-97
aş	-98
▁K	-99
um	-100
ap	-101
▁S	-102
▁v	-103
▁==	-104
ab	-105
▁al	-106
ro	-107
▁be	-108
iz	-109
▁de	-110
ür	-111
▁ç	-112
ce	-113
id	-114
▁|	-115
▁on	-116
ey	-117
iş	-118
az	-119
▁I	-120
ık	-121
▁for	-122
ow	-123
du	-124
ış	-125
ah	-126
ok	-127
lan	-128
▁st	-129
▁P	-130
ım	-131
▁ö	-132
▁D	-133
ter	-134
▁you	-135
li	-136
▁wh	-137
▁that	-138
ly	-139
ig	-140
di	-141
▁re	-142
ver	-143
ine	-144
os	-145
ağ	-146
ında	-147
Tom	-148
▁C	-149
th	-150
▁E	-151
dan	-152
ist	-153
▁as	-154
ya	-155
▁=	-156
ith	-157
ük	-158
▁H	-159
▁or	-160
▁-	-161
▁it	-162
la	-163
▁he	-164
ere	-165
üz	-166
ate	-167
▁İ	-168
▁G	-169
lı	-170
tion	-171
▁iç	-172
up	-173
ation	-174
▁do	-175
ti	-176
inde	-177
od	-178
▁gö	-179
The	-180
▁F	-181
ld	-182
ib	-183
ini	-184
ch	-185
▁ş	-186
▁with	-187
ını	-188
ası	-189
av	-190
op	-191
üm	-192
dı	-193
den	-194
ile	-195
ers	-196
ları	-197
te	-198
ect	-199
----------------	-200
▁en	-201
▁are	-202
ag	-203
ip	-204
▁ex	-205
▁us	-206
ess	-207
if	-208
▁at	-209
se	-210
▁ne	-211
▁O	-212
▁con	-213
af	-214
ht	-215
est	-216
▁se	-217
ary	-218
ill	-219
uş	-220
▁pro	-221
▁not	-222
and	-223
oc	-224
▁was	-225
▁yap	-226
esi	-227
▁bu	-228
ül	-229
leri	-230
eri	-231
larak	-232
ave	-233
▁R	-234
lem	-235
ıs	-236
end	-237
ant	-238
art	-239
▁için	-240
====	-241
▁===	-242
our	-243
▁can	-244
ki	-245
▁Y	-246
tir	-247
▁N	-248
▁olarak	-249
▁et	-250
▁z	-251
ould	-252
lu	-253
mak	-254
ların	-255
▁L	-256
()	-257
ön	-258
▁ed	-259
tr	-260
ız	-261
▁son	-262
▁fr	-263
▁by	-264
ilm	-265
▁com	-266
▁me	-267
qu	-268
lik	-269
ta	-270
ans	-271
ard	-272
inin	-273
▁baş	-274
üy	-275
▁il	-276
uz	-277
▁this	-278
ust	-279
▁tar	-280
alar	-281
ma	-282
▁ile	-283
lam	-284
▁have	-285
unc	-286
ği	-287
▁oldu	-288
ort	-289
▁tr	-290
▁ver	-291
▁ad	-292
und	-293
tır	-294
ame	-295
ang	-296
tı	-297
▁le	-298
ass	-299
ından	-300
uy	-301
all	-302
ore	-303
alı	-304
▁değ	-305
ject	-306
▁yıl	-307
▁sh	-308
ğu	-309
ez	-310
▁W	-311
▁da	-312
ight	-313
dır	-314
ra	-315
▁we	-316
man	-317
▁pr	-318
ına	-319
▁gel	-320
▁su	-321
▁go	-322
üş	-323
▁will	-324
mp	-325
▁sp	-326
▁kar	-327
()"	-328
ime	-329
▁her	-330
ilir	-331
gor	-332
▁from	-333
Th	-334
▁ön	-335
ğı	-336
▁ch	-337
ue	-338
▁par	-339
▁mo	-340
▁J	-341
üç	-342
out	-343
**	-344
▁if	-345
ind	-346
iv	-347
▁ab	-348
iler	-349
bject	-350
▁his	-351
aki	-352
pr	-353
mek	-354
og	-355
iyor	-356
ev	-357
▁bil	-358
tur	-359
adı	-360
ategor	-361
ürk	-362
mış	-363
her	-364
▁has	-365
sel	-366
▁Mary	-367
>>	-368
ıy	-369
▁ay	-370
ome	-371
les	-372
öy	-373
▁Tom	-374
urn	-375
ğun	-376
ark	-377
one	-378
ğr	-379
ayı	-380
▁yer	-381
aha	-382
▁olan	-383
öl	-384
eler	-385
ted	-386
yth	-387
▁bul	-388
▁all	-389
▁kul	-390
aya	-391
uc	-392
▁U	-393
fer	-394
ive	-395
▁wor	-396
▁so	-397
▁The	-398
uk	-399
ih	-400
anı	-401
iye	-402
▁ac	-403
ity	-404
▁bo	-405
yp	-406
▁An	-407
▁te	-408
▁met	-409
led	-410
iştir	-411
ack	-412
let	-413
▁kullan	-414
age	-415
eb	-416
▁kon	-417
leş	-418
eni	-419
▁olm	-420
▁but	-421
ategori	-422
ca	-423
▁ger	-424
iğ	-425
ult	-426
▁Kategori	-427
▁gör	-428
▁your	-429
▁kad	-430
able	-431
ast	-432
▁gen	-433
ally	-434
ents	-435
ell	-436
▁ev	-437
▁Türk	-438
▁co	-439
▁V	-440
mer	-441
▁daha	-442
ör	-443
ich	-444
▁res	-445
ten	-446
orm	-447
▁ist	-448
isi	-449
▁op	-450
ken	-451
res	-452
aman	-453
▁yaz	-454
▁kur	-455
ının	-456
adır	-457
int	-458
__	-459
▁my	-460
yon	-461
ibi	-462
▁Bu	-463
lık	-464
▁kn	-465
..	-466
▁var	-467
lass	-468
eç	-469
nin	-470
",	-471
ep	-472
eturn	-473
ci	-474
▁'	-475
inden	-476
▁un	-477
ong	-478
▁çok	-479
ade	-480
ther	-481
▁man	-482
▁j	-483
daki	-484
ri	-485
len	-486
ake	-487
ob	-488
üyük	-489
▁get	-490
▁taraf	-491
ain	-492
pl	-493
oug	-494
ub	-495
ink	-496
========	-497
▁one	-498
▁str	-499
▁lo	-500
▁when	-501
eh	-502
▁out	-503
ence	-504
ple	-505
ated	-506
▁lik	-507
▁gibi	-508
ge	-509
▁\	-510
▁iş	-511
gil	-512
▁bulun	-513
ne	-514
asında	-515
▁kadar	-516
▁Ç	-517
▁know	-518
▁bel	-519
eş	-520
▁object	-521
▁time	-522
▁dön	-523
▁int	-524
▁imp	-525
ure	-526
unction	-527
He	-528
ase	-529
üçük	-530
dir	-531
eden	-532
ython	-533
gr	-534
▁kal	-535
▁Ar	-536
Wh	-537
▁gün	-538
ost	-539
ock	-540
▁what	-541
▁zaman	-542
ite	-543
▁say	-544
▁Ö	-545
ear	-546
ud	-547
cı	-548
xt	-549
▁geç	-550
cak	-551
▁up	-552
ması	-553
▁about	-554
),	-555
lay	-556
der	-557
▁tarafından	-558
▁Fr	-559
▁üz	-560
üt	-561
tadır	-562
▁want	-563
nın	-564
str	-565
▁val	-566
▁def	-567
▁söy	-568
▁sür	-569
ide	-570
▁like	-571
▁Al	-572
▁düş	-573
laş	-574
▁çal	-575
It	-576
ilen	-577
ana	-578
▁yön	-579
ace	-580
▁yüz	-581
ber	-582
▁yaş	-583
iç	-584
ada	-585
▁aç	-586
erk	-587
▁Ş	-588
▁function	-589
▁comp	-590
▁bağ	-591
▁büyük	-592
▁sonra	-593
▁sah	-594
▁#	-595
".	-596
▁göre	-597
▁Bir	-598
▁don	-599
▁no	-600
men	-601
▁had	-602
▁oy	-603
me	-604
▁which	-605
▁oluş	-606
Py	-607
▁gr	-608
ies	-609
ous	-610
▁böl	-611
▁öz	-612
ach	-613
alk	-614
▁çık	-615
ff	-616
imi	-617
▁him	-618
).	-619
cr	-620
ice	-621
aç	-622
idir	-623
iyle	-624
▁should	-625
▁more	-626
▁Amer	-627
▁any	-628
▁inter	-629
edi	-630
ator	-631
▁ap	-632
lerin	-633
ie	-634
ize	-635
▁çalış	-636
ılan	-637
If	-638
san	-639
▁would	-640
▁olduğun	-641
This	-642
ype	-643
▁**	-644
ign	-645
eye	-646
▁return	-647
ov	-648
ks	-649
▁Th	-650
port	-651
▁uy	-652
hod	-653
maktadır	-654
ath	-655
cep	-656
▁than	-657
mıştır	-658
▁used	-659
ning	-660
▁es	-661
cess	-662
▁use	-663
ord	-664
▁other	-665
▁ilk	-666
▁tan	-667
vers	-668
so	-669
▁tek	-670
app	-671
form	-672
stan	-673
In	-674
ment	-675
tedir	-676
iyet	-677
▁dev	-678
yi	-679
unda	-680
ısı	-681
>>>	-682
▁yak	-683
ll	-684
▁İs	-685
ose	-686
ğini	-687
ror	-688
öz	-689
You	-690
tal	-691
▁there	-692
üs	-693
▁only	-694
tan	-695
met	-696
abilir	-697
ley	-698
▁been	-699
tor	-700
▁class	-701
ays	-702
ish	-703
▁Python	-704
▁did	-705
lec	-706
▁ak	-707
arı	-708
▁some	-709
▁arg	-710
▁veya	-711
ild	-712
▁küçük	-713
▁they	-714
▁ever	-715
▁+	-716
▁İn	-717
▁ise	-718
▁uz	-719
▁el	-720
▁does	-721
▁dis	-722
▁new	-723
ildi	-724
ition	-725
▁part	-726
▁sa	-727
▁den	-728
▁Amerik	-729
unun	-730
▁qu	-731
enc	-732
ellik	-733
ree	-734
erm	-735
resim	-736
ug	-737
▁fir	-738
▁karş	-739
▁In	-740
▁En	-741
oy	-742
read	-743
ations	-744
▁method	-745
mas	-746
ough	-747
▁think	-748
▁şey	-749
▁were	-750
ail	-751
fr	-752
get	-753
▁ek	-754
çek	-755
▁dur	-756
▁har	-757
▁yılında	-758
ial	-759
enin	-760
oj	-761
▁kay	-762
▁tak	-763
▁mu	-764
rı	-765
use	-766
▁tarih	-767
ran	-768
hing	-769
ise	-770
üğ	-771
▁set	-772
▁mat	-773
are	-774
ings	-775
▁değiş	-776
▁bec	-777
rit	-778
ağı	-779
dule	-780
▁bas	-781
ical	-782
omet	-783
ıyor	-784
iğer	-785
azı	-786
bol	-787
▁she	-788
ound	-789
low	-790
▁who	-791
We	-792
ond	-793
▁üzer	-794
▁sahip	-795
tain	-796
lat	-797
▁ül	-798
▁call	-799
ede	-800
▁gerek	-801
tür	-802
usu	-803
üre	-804
ry	-805
ens	-806
▁düşün	-807
ıldı	-808
ory	-809
▁gir	-810
▁pe	-811
▁sağ	-812
On	-813
ata	-814
yn	-815
▁sup	-816
▁may	-817
▁hak	-818
oloj	-819
▁their	-820
miş	-821
▁work	-822
▁şek	-823
▁list	-824
▁into	-825
ars	-826
▁yay	-827
▁alan	-828
ili	-829
▁file	-830
▁olduğunu	-831
▁tem	-832
per	-833
▁başk	-834
▁er	-835
kin	-836
▁des	-837
ument	-838
ladı	-839
eli	-840
ople	-841
▁num	-842
ğını	-843
▁need	-844
▁could	-845
▁top	-846
ni	-847
▁tw	-848
gram	-849
liği	-850
ünde	-851
ayan	-852
▁ben	-853
ew	-854
▁how	-855
ft	-856
▁inc	-857
▁:	-858
tions	-859
▁form	-860
▁bet	-861
ye	-862
▁ask	-863
▁yar	-864
act	-865
aları	-866
▁am	-867
avaş	-868
ça	-869
▁value	-870
▁yük	-871
lara	-872
atı	-873
ale	-874
ster	-875
fter	-876
vel	-877
eter	-878
▁spec	-879
▁iki	-880
▁dif	-881
larda	-882
ely	-883
****	-884
▁sır	-885
▁Kar	-886
unu	-887
▁dönem	-888
▁Av	-889
fore	-890
▁Ü	-891
▁doğ	-892
row	-893
yan	-894
▁alt	-895
istem	-896
▁değil	-897
▁kiş	-898
acak	-899
asyon	-900
▁neden	-901
lo	-902
ss	-903
▁ort	-904
▁add	-905
tar	-906
sa	-907
▁over	-908
istan	-909
ece	-910
▁yol	-911
right	-912
▁boy	-913
other	-914
tu	-915
▁Z	-916
ting	-917
~~	-918
ibut	-919
▁olduğu	-920
She	-921
par	-922
▁look	-923
▁etti	-924
▁must	-925
▁ülk	-926
▁exam	-927
▁san	-928
',	-929
ındaki	-930
ause	-931
▁arasında	-932
▁people	-933
larını	-934
▁tür	-935
oğ	-936
▁ag	-937
▁gerçek	-938
▁und	-939
▁just	-940
▁öğr	-941
Bu	-942
▁exp	-943
ty	-944
▁önem	-945
ied	-946
eleri	-947
lek	-948
ick	-949
▁po	-950
ılı	-951
▁pol	-952
reat	-953
▁cal	-954
▁kab	-955
▁very	-956
ault	-957
▁kat	-958
▁app	-959
ons	-960
▁İngil	-961
▁>>>	-962
▁plan	-963
self	-964
▁now	-965
▁bölg	-966
not	-967
▁mon	-968
▁first	-969
▁diğer	-970
stem	-971
iyorum	-972
▁ser	-973
co	-974
ımı	-975
Er	-976
▁Frans	-977
bir	-978
▁vers	-979
▁fark	-980
▁also	-981
ince	-982
▁long	-983
mektedir	-984
▁comm	-985
ts	-986
▁insan	-987
üf	-988
day	-989
▁dir	-990
▁prob	-991
ystem	-992
▁belir	-993
-+	-994
ool	-995
çe	-996
acağ	-997
▁dil	-998
▁pre	-999
ici	-1000
▁two	-1001
▁bak	-1002
erkez	-1003
ehir	-1004
hed	-1005
▁under	-1006
▁program	-1007
esinde	-1008
lerini	-1009
▁kö	-1010
▁going	-1011
▁good	-1012
lement	-1013
▁git	-1014
ular	-1015
eyi	-1016
▁kap	-1017
▁düz	-1018
▁yönet	-1019
▁see	-1020
There	-1021
▁using	-1022
arak	-1023
ia	-1024
yla	-1025
▁Ch	-1026
nak	-1027
üyor	-1028
miştir	-1029
▁read	-1030
▁Er	-1031
▁kurul	-1032
▁hand	-1033
▁öl	-1034
▁them	-1035
ser	-1036
alık	-1037
▁[	-1038
▁per	-1039
▁{	-1040
ather	-1041
▁make	-1042
maya	-1043
▁col	-1044
tribut	-1045
▁küçükresim	-1046
ex	-1047
▁Or	-1048
lığı	-1049
▁sor	-1050
nı	-1051
ılır	-1052
▁Gün	-1053
ama	-1054
▁im	-1055
▁our	-1056
▁many	-1057
▁Ay	-1058
▁tam	-1059
leştir	-1060
ellikle	-1061
▁%	-1062
deki	-1063
onom	-1064
...	-1065
▁dec	-1066
▁pos	-1067
▁göster	-1068
▁version	-1069
iyon	-1070
▁sub	-1071
▁dış	-1072
▁faz	-1073
mes	-1074
rup	-1075
▁hav	-1076
▁year	-1077
sek	-1078
▁bilg	-1079
▁after	-1080
ful	-1081
▁didn	-1082
▁birlik	-1083
▁ul	-1084
lp	-1085
air	-1086
ger	-1087
hang	-1088
▁module	-1089
▁same	-1090
val	-1091
tern	-1092
ible	-1093
larında	-1094
▁before	-1095
▁konuş	-1096
çi	-1097
▁sistem	-1098
ünya	-1099
▁mil	-1100
An	-1101
min	-1102
una	-1103
▁Ad	-1104
▁fol	-1105
adan	-1106
larının	-1107
▁Amerikalı	-1108
▁Türkiye	-1109
ates	-1110
any	-1111
▁hay	-1112
ara	-1113
lü	-1114
▁import	-1115
ıyla	-1116
ys	-1117
▁yan	-1118
▁This	-1119
ledi	-1120
ral	-1121
uv	-1122
▁uyg	-1123
▁ür	-1124
▁way	-1125
▁seç	-1126
▁name	-1127
▁its	-1128
▁off	-1129
▁string	-1130
own	-1131
▁kıs	-1132
ork	-1133
▁oluştur	-1134
▁ok	-1135
duc	-1136
aret	-1137
▁happ	-1138
urr	-1139
erek	-1140
▁mod	-1141
▁söz	-1142
▁mak	-1143
endi	-1144
ything	-1145
▁pl	-1146
▁yok	-1147
uştur	-1148
ix	-1149
▁etk	-1150
▁oyunc	-1151
▁zor	-1152
oz	-1153
oğu	-1154
ames	-1155
dür	-1156
▁type	-1157
▁gelen	-1158
yıl	-1159
▁hakk	-1160
▁====	-1161
▁İngiliz	-1162
we	-1163
▁iyi	-1164
set	-1165
na	-1166
================	-1167
lerinin	-1168
▁help	-1169
▁somet	-1170
▁where	-1171
▁bit	-1172
▁char	-1173
indeki	-1174
eral	-1175
▁az	-1176
ife	-1177
▁cl	-1178
▁ya	-1179
tle	-1180
▁}	-1181
eng	-1182
ika	-1183
ought	-1184
▁önemli	-1185
▁süre	-1186
▁sec	-1187
mi	-1188
gan	-1189
ardım	-1190
▁such	-1191
▁Os	-1192
ange	-1193
▁doğr	-1194
▁St	-1195
▁dr	-1196
▁çek	-1197
."	-1198
▁stud	-1199
▁end	-1200
▁önce	-1201
▁tell	-1202
▁üç	-1203
▁follow	-1204
rıca	-1205
▁fut	-1206
ğin	-1207
iyas	-1208
▁here	-1209
mem	-1210
▁much	-1211
Object	-1212
▁specif	-1213
▁Jap	-1214
▁id	-1215
cu	-1216
None	-1217
▁film	-1218
▁der	-1219
malar	-1220
ics	-1221
han	-1222
▁yet	-1223
▁stat	-1224
lerde	-1225
indow	-1226
eg	-1227
ven	-1228
▁differ	-1229
press	-1230
▁kend	-1231
wn	-1232
▁Dev	-1233
iyat	-1234
ef	-1235
ways	-1236
lere	-1237
Bir	-1238
▁art	-1239
▁oper	-1240
▁last	-1241
▁pass	-1242
▁açık	-1243
ern	-1244
▁back	-1245
▁called	-1246
arg	-1247
ode	-1248
▁görün	-1249
hn	-1250
▁yüzyıl	-1251
▁cre	-1252
▁birlikte	-1253
▁because	-1254
olog	-1255
▁excep	-1256
▁then	-1257
▁rec	-1258
▁hal	-1259
hur	-1260
▁example	-1261
▁şekil	-1262
luk	-1263
▁kaz	-1264
uç	-1265
▁every	-1266
▁sat	-1267
hes	-1268
bul	-1269
atch	-1270
put	-1271
▁mem	-1272
▁merkez	-1273
amp	-1274
▁ik	-1275
çok	-1276
Error	-1277
▁start	-1278
larına	-1279
▁most	-1280
van	-1281
▁fazla	-1282
ren	-1283
▁day	-1284
mesi	-1285
▁aynı	-1286
▁Fransız	-1287
▁fe	-1288
crip	-1289
▁never	-1290
▁sim	-1291
ardır	-1292
▁problem	-1293
inc	-1294
▁take	-1295
▁av	-1296
ümü	-1297
ative	-1298
▁code	-1299
uzey	-1300
▁number	-1301
ues	-1302
▁lit	-1303
▁anlam	-1304
▁durum	-1305
üst	-1306
▁wr	-1307
als	-1308
▁ro	-1309
▁spe	-1310
▁always	-1311
▁bilin	-1312
▁support	-1313
ote	-1314
▁If	-1315
▁ra	-1316
ines	-1317
sp	-1318
ıcı	-1319
▁yüksek	-1320
▁br	-1321
ider	-1322
▁default	-1323
▁iz	-1324
▁vari	-1325
▁car	-1326
▁eğ	-1327
▁dep	-1328
▁bazı	-1329
▁cons	-1330
When	-1331
ces	-1332
▁Osman	-1333
▁çev	-1334
▁Alman	-1335
▁key	-1336
▁child	-1337
ily	-1338
▁doesn	-1339
oğun	-1340
▁fin	-1341
▁lear	-1342
▁edilm	-1343
▁dol	-1344
ead	-1345
▁ağ	-1346
ileri	-1347
izi	-1348
▁hiç	-1349
▁AB	-1350
edir	-1351
▁değer	-1352
▁tüm	-1353
umhur	-1354
▁giv	-1355
text	-1356
▁taş	-1357
▁onun	-1358
▁sayı	-1359
stanbul	-1360
▁ör	-1361
ating	-1362
ılık	-1363
▁kabul	-1364
▁/	-1365
üfus	-1366
▁yeni	-1367
▁olmak	-1368
ood	-1369
adece	-1370
sız	-1371
ages	-1372
atik	-1373
ds	-1374
▁tanım	-1375
▁something	-1376
▁içer	-1377
unt	-1378
ined	-1379
angu	-1380
▁Ek	-1381
▁trans	-1382
▁ent	-1383
▁inst	-1384
▁kit	-1385
▁yardım	-1386
▁prov	-1387
▁yaklaş	-1388
▁each	-1389
▁Py	-1390
▁sc	-1391
ian	-1392
ions	-1393
▁argument	-1394
▁müz	-1395
▁adı	-1396
▁vardır	-1397
ke	-1398
aşk	-1399
▁hat	-1400
▁eş	-1401
ement	-1402
('	-1403
ilik	-1404
▁bur	-1405
lardan	-1406
endir	-1407
▁sev	-1408
▁sürüm	-1409
chool	-1410
▁param	-1411
]]	-1412
▁İl	-1413
imes	-1414
add	-1415
con	-1416
▁refer	-1417
tü	-1418
▁parç	-1419
▁dem	-1420
sun	-1421
acı	-1422
iel	-1423
name	-1424
▁cor	-1425
▁kom	-1426
▁pers	-1427
ünü	-1428
alan	-1429
▁tut	-1430
mam	-1431
My	-1432
▁find	-1433
What	-1434
▁these	-1435
▁şekilde	-1436
▁ama	-1437
▁içinde	-1438
oth	-1439
sin	-1440
▁Rus	-1441
eşit	-1442
▁karşı	-1443
luğu	-1444
▁mis	-1445
eki	-1446
tik	-1447
")	-1448
dül	-1449
▁göz	-1450
ater	-1451
rupa	-1452
▁ilgil	-1453
▁attribut	-1454
▁Tr	-1455
▁yaptı	-1456
▁ph	-1457
esent	-1458
med	-1459
▁right	-1460
▁without	-1461
▁mus	-1462
▁che	-1463
▁It	-1464
ters	-1465
dığı	-1466
')	-1467
▁ayr	-1468
▁tas	-1469
▁dün	-1470
▁mü	-1471
▁ass	-1472
trol	-1473
ait	-1474
▁stand	-1475
▁system	-1476
meye	-1477
▁kes	-1478
▁sol	-1479
lev	-1480
▁Osmanlı	-1481
▁aş	-1482
▁sm	-1483
▁instan	-1484
ocuk	-1485
▁din	-1486
▁objects	-1487
ınıf	-1488
▁even	-1489
▁hakkında	-1490
▁acc	-1491
ee	-1492
ınır	-1493
▁said	-1494
tive	-1495
of	-1496
===	-1497
nun	-1498
▁requ	-1499
yl	-1500
▁det	-1501
▁contain	-1502
▁process	-1503
▁bilim	-1504
po	-1505
ised	-1506
▁bin	-1507
▁birçok	-1508
def	-1509
▁langu	-1510
▁made	-1511
▁bl	-1512
igh	-1513
ayıs	-1514
ouse	-1515
ecek	-1516
▁onu	-1517
iden	-1518
▁As	-1519
▁rel	-1520
They	-1521
aştır	-1522
▁well	-1523
▁duy	-1524
ivers	-1525
▁yazar	-1526
▁three	-1527
▁üret	-1528
▁Dünya	-1529
rough	-1530
▁data	-1531
landır	-1532
▁min	-1533
tes	-1534
▁play	-1535
▁siyas	-1536
ween	-1537
oston	-1538
▁test	-1539
▁ancak	-1540
elik	-1541
ded	-1542
urrent	-1543
▁equ	-1544
▁uygul	-1545
olu	-1546
ody	-1547
tem	-1548
▁result	-1549
▁let	-1550
):	-1551
oş	-1552
lease	-1553
▁Wh	-1554
▁İstanbul	-1555
ance	-1556
ari	-1557
lerine	-1558
gl	-1559
asına	-1560
lic	-1561
▁line	-1562
aw	-1563
▁"__	-1564
▁şark	-1565
▁kullanıl	-1566
▁sal	-1567
Con	-1568
▁between	-1569
▁got	-1570
ilece	-1571
▁being	-1572
▁bana	-1573
▁çeşit	-1574
plic	-1575
▁ter	-1576
uments	-1577
lerinde	-1578
▁again	-1579
tin	-1580
▁doğru	-1581
üc	-1582
▁getir	-1583
▁yen	-1584
ket	-1585
rec	-1586
▁kim	-1587
▁futbol	-1588
▁through	-1589
lus	-1590
▁eski	-1591
uh	-1592
▁doc	-1593
▁come	-1594
▁too	-1595
▁Avrupa	-1596
▁ark	-1597
line	-1598
▁farklı	-1599
arator	-1600
zer	-1601
▁Tem	-1602
▁Jo	-1603
▁Gen	-1604
▁Pro	-1605
▁best	-1606
amı	-1607
▁sı	-1608
lama	-1609
ying	-1610
▁hem	-1611
ıştır	-1612
▁oyuncu	-1613
esine	-1614
▁world	-1615
class	-1616
▁writ	-1617
ened	-1618
▁geliş	-1619
lığ	-1620
Return	-1621
ebilir	-1622
osy	-1623
ever	-1624
▁log	-1625
▁pat	-1626
▁book	-1627
▁bağlan	-1628
ğim	-1629
pos	-1630
▁won	-1631
▁sınıf	-1632
üğü	-1633
elen	-1634
▁pop	-1635
▁charac	-1636
upright	-1637
▁really	-1638
▁sanat	-1639
*.	-1640
▁Boston	-1641
▁different	-1642
▁–	-1643
sal	-1644
Tr	-1645
▁söyledi	-1646
▁coun	-1647
▁Ak	-1648
▁run	-1649
▁school	-1650
ict	-1651
bilir	-1652
Do	-1653
▁bulunan	-1654
▁talk	-1655
▁genel	-1656
ited	-1657
▁home	-1658
▁uzun	-1659
▁sadece	-1660
unan	-1661
ins	-1662
ner	-1663
ove	-1664
struc	-1665
▁dest	-1666
▁bağlı	-1667
lektr	-1668
▁iliş	-1669
stand	-1670
ook	-1671
▁"'	-1672
nivers	-1673
▁ilç	-1674
▁aw	-1675
▁typ	-1676
ress	-1677
ved	-1678
lim	-1679
lerinden	-1680
oman	-1681
ire	-1682
ph	-1683
▁down	-1684
▁İtal	-1685
▁kazan	-1686
▁başladı	-1687
leşik	-1688
ck	-1689
eket	-1690
formation	-1691
izm	-1692
▁inv	-1693
fig	-1694
▁eder	-1695
▁years	-1696
▁direct	-1697
▁Ağ	-1698
orum	-1699
▁speak	-1700
aj	-1701
▁üzere	-1702
How	-1703
▁Wik	-1704
▁told	-1705
inal	-1706
lag	-1707
ility	-1708
▁Mart	-1709
▁yem	-1710
▁yapıl	-1711
▁“	-1712
üp	-1713
▁Cumhur	-1714
▁bilm	-1715
▁sık	-1716
▁following	-1717
ulu	-1718
▁düzen	-1719
▁order	-1720
---+	-1721
fic	-1722
▁given	-1723
▁still	-1724
ütün	-1725
asını	-1726
land	-1727
onya	-1728
▁while	-1729
▁çıkar	-1730
▁üzerinde	-1731
gün	-1732
▁Par	-1733
ank	-1734
▁yaşam	-1735
▁özel	-1736
▁olur	-1737
▁life	-1738
▁person	-1739
mey	-1740
oid	-1741
▁error	-1742
▁devlet	-1743
iend	-1744
▁own	-1745
▁nüfus	-1746
Ben	-1747
▁topl	-1748
ektedir	-1749
▁friend	-1750
▁thought	-1751
▁ide	-1752
diği	-1753
tör	-1754
▁...	-1755
▁ear	-1756
▁inclu	-1757
▁money	-1758
dur	-1759
▁At	-1760
~~~~	-1761
ture	-1762
▁old	-1763
▁eff	-1764
▁sur	-1765
▁ortaya	-1766
As	-1767
larından	-1768
▁poss	-1769
▁kendi	-1770
▁x	-1771
liğ	-1772
▁Un	-1773
▁reg	-1774
▁sınır	-1775
▁Mar	-1776
its	-1777
alse	-1778
asıl	-1779
▁put	-1780
lerden	-1781
ylül	-1782
oun	-1783
ecut	-1784
▁ob	-1785
▁şehir	-1786
▁tab	-1787
ences	-1788
essage	-1789
ümüz	-1790
▁savaş	-1791
▁ins	-1792
leme	-1793
ültür	-1794
si	-1795
oup	-1796
▁Kur	-1797
▁prot	-1798
▁yaklaşık	-1799
vet	-1800
oloji	-1801
▁değişti	-1802
ucu	-1803
----+	-1804
▁sonr	-1805
********	-1806
▁exception	-1807
▁ulaş	-1808
nde	-1809
▁found	-1810
ection	-1811
raf	-1812
▁Ocak	-1813
ediğ	-1814
▁biri	-1815
▁Kas	-1816
ert	-1817
rist	-1818
▁lot	-1819
ized	-1820
ual	-1821
▁Savaş	-1822
▁öld	-1823
▁things	-1824
▁anything	-1825
▁sun	-1826
▁etmek	-1827
avi	-1828
▁üst	-1829
▁yapılan	-1830
por	-1831
ource	-1832
▁Eylül	-1833
red	-1834
▁Haz	-1835
itesi	-1836
▁better	-1837
▁information	-1838
▁gener	-1839
rar	-1840
▁bile	-1841
▁ün	-1842
isan	-1843
▁arguments	-1844
▁halk	-1845
▁house	-1846
▁Öz	-1847
glish	-1848
▁sürümünde	-1849
▁current	-1850
dü	-1851
lük	-1852
▁kişi	-1853
anın	-1854
▁çocuk	-1855
▁üy	-1856
kü	-1857
▁methods	-1858
IN	-1859
▁next	-1860
For	-1861
ton	-1862
ınız	-1863
▁great	-1864
▁,	-1865
()".	-1866
▁hareket	-1867
nik	-1868
br	-1869
lanan	-1870
ategory	-1871
▁Pr	-1872
unca	-1873
▁loc	-1874
▁ner	-1875
Ex	-1876
▁söylem	-1877
▁sign	-1878
▁little	-1879
be	-1880
ope	-1881
▁Ayrıca	-1882
vi	-1883
▁ilgili	-1884
▁hard	-1885
▁rest	-1886
ically	-1887
▁önc	-1888
▁Mayıs	-1889
iran	-1890
▁başka	-1891
ıt	-1892
old	-1893
▁Kay	-1894
▁functions	-1895
▁Devlet	-1896
▁hız	-1897
itim	-1898
mayı	-1899
iyordu	-1900
▁kaynak	-1901
ors	-1902
muz	-1903
ves	-1904
nek	-1905
▁option	-1906
urs	-1907
öyle	-1908
arası	-1909
▁yakın	-1910
▁fak	-1911
▁fam	-1912
til	-1913
ünden	-1914
ward	-1915
ulti	-1916
▁karar	-1917
maz	-1918
▁allow	-1919
▁Ekim	-1920
▁left	-1921
▁mut	-1922
▁point	-1923
▁II	-1924
adaş	-1925
▁For	-1926
▁alın	-1927
gin	-1928
▁values	-1929
*,	-1930
frac	-1931
▁John	-1932
asındaki	-1933
▁X	-1934
iew	-1935
indows	-1936
▁format	-1937
ubat	-1938
Chang	-1939
fo	-1940
duğu	-1941
Ar	-1942
▁ot	-1943
▁nasıl	-1944
▁üzerine	-1945
▁head	-1946
esini	-1947
▁beh	-1948
less	-1949
las	-1950
▁implement	-1951
▁hük	-1952
▁sen	-1953
üne	-1954
omm	-1955
lendir	-1956
▁understand	-1957
▁mer	-1958
uth	-1959
tim	-1960
▁bar	-1961
▁geçir	-1962
▁temel	-1963
▁English	-1964
ism	-1965
▁Con	-1966
▁bus	-1967
cek	-1968
▁kol	-1969
▁sent	-1970
--+	-1971
ull	-1972
▁kil	-1973
mparator	-1974
▁sing	-1975
cc	-1976
.)	-1977
ems	-1978
▁Nisan	-1979
▁Tar	-1980
kinci	-1981
edia	-1982
ustos	-1983
▁mi	-1984
▁olmadı	-1985
layan	-1986
▁inan	-1987
ilmiştir	-1988
▁kan	-1989
lin	-1990
by	-1991
▁tah	-1992
▁İmparator	-1993
file	-1994
iction	-1995
acağını	-1996
ax	-1997
▁Es	-1998
ities	-1999
▁isim	-2000
▁çeşitli	-2001
()",	-2002
ident	-2003
▁language	-2004
ırak	-2005
▁olup	-2006
iyeti	-2007
▁instance	-2008
ital	-2009
Changed	-2010
▁ques	-2011
landı	-2012
▁Kasım	-2013
umu	-2014
En	-2015
▁.	-2016
▁arr	-2017
▁km	-2018
▁güç	-2019
▁Yunan	-2020
Onun	-2021
▁kız	-2022
▁Temmuz	-2023
gi	-2024
▁since	-2025
çı	-2026
pro	-2027
▁hâ	-2028
ier	-2029
esinin	-2030
▁Şubat	-2031
▁istem	-2032
▁names	-2033
▁geliştir	-2034
▁dav	-2035
masını	-2036
}{	-2037
▁devam	-2038
NA	-2039
gen	-2040
küçük	-2041
▁öğren	-2042
▁olduk	-2043
deş	-2044
▁cannot	-2045
larla	-2046
ğraf	-2047
▁gaz	-2048
▁tamam	-2049
▁aldı	-2050
omp	-2051
▁gu	-2052
▁mar	-2053
▁sit	-2054
▁futbolcu	-2055
▁nok	-2056
▁nes	-2057
hangi	-2058
sh	-2059
▁geniş	-2060
▁Haziran	-2061
▁repr	-2062
▁around	-2063
▁ekonom	-2064
▁Ağustos	-2065
vir	-2066
▁geri	-2067
▁thread	-2068
LL	-2069
▁Kr	-2070
elim	-2071
alt	-2072
▁week	-2073
▁bırak	-2074
ble	-2075
PyObject	-2076
▁cle	-2077
ilim	-2078
ided	-2079
▁Aralık	-2080
ilerin	-2081
ets	-2082
▁went	-2083
▁able	-2084
the	-2085
ired	-2086
▁text	-2087
▁em	-2088
▁geldi	-2089
▁eden	-2090
▁true	-2091
▁polit	-2092
▁might	-2093
▁Birleşik	-2094
▁u	-2095
▁Ex	-2096
▁ge	-2097
▁mor	-2098
ected	-2099
▁care	-2100
masına	-2101
▁genellikle	-2102
gın	-2103
▁--	-2104
rop	-2105
▁another	-2106
▁boyunca	-2107
son	-2108
müş	-2109
▁iht	-2110
▁real	-2111
▁bpo	-2112
küçükresim	-2113
▁arkadaş	-2114
ream	-2115
▁olay	-2116
▁benim	-2117
▁exist	-2118
▁print	-2119
▁sin	-2120
muş	-2121
St	-2122
);	-2123
▁case	-2124
▁gü	-2125
▁enc	-2126
▁bulunmaktadır	-2127
▁those	-2128
▁emp	-2129
▁kut	-2130
ON	-2131
uyor	-2132
▁liv	-2133
ST	-2134
ually	-2135
▁Ünivers	-2136
▁Category	-2137
rim	-2138
eep	-2139
ram	-2140
▁show	-2141
▁Ör	-2142
medi	-2143
▁sil	-2144
▁both	-2145
for	-2146
▁countr	-2147
velop	-2148
ünün	-2149
▁sure	-2150
isay	-2151
▁saat	-2152
PI	-2153
▁ilişk	-2154
▁feel	-2155
▁learn	-2156
▁doğum	-2157
ese	-2158
▁dik	-2159
▁night	-2160
udi	-2161
arlı	-2162
ımız	-2163
▁lib	-2164
ield	-2165
▁yapı	-2166
▁children	-2167
isinde	-2168
▁express	-2169
("	-2170
Mary	-2171
pe	-2172
▁cer	-2173
▁beri	-2174
ym	-2175
neğin	-2176
▁give	-2177
▁Japan	-2178
▁red	-2179
▁resp	-2180
▁ten	-2181
ature	-2182
muştur	-2183
lüm	-2184
asının	-2185
to	-2186
▁attribute	-2187
▁non	-2188
ilmiş	-2189
▁özellik	-2190
▁Met	-2191
urg	-2192
ılmış	-2193
▁thing	-2194
▁organ	-2195
▁milyon	-2196
eci	-2197
▁turn	-2198
yet	-2199
▁yas	-2200
uvvet	-2201
▁şeh	-2202
aut	-2203
ER	-2204
▁rem	-2205
▁adlı	-2206
▁term	-2207
▁elektr	-2208
arp	-2209
▁instead	-2210
▁Başk	-2211
▁often	-2212
yle	-2213
▁att	-2214
ron	-2215
lib	-2216
uple	-2217
▁interest	-2218
nda	-2219
▁olması	-2220
▁siyaset	-2221
elf	-2222
▁lar	-2223
iet	-2224
bers	-2225
sion	-2226
▁meet	-2227
ışı	-2228
▁execut	-2229
▁erk	-2230
work	-2231
ita	-2232
orrow	-2233
▁room	-2234
▁On	-2235
word	-2236
▁kent	-2237
▁place	-2238
▁nedeniyle	-2239
crib	-2240
▁inte	-2241
▁kuzey	-2242
▁parçası	-2243
▁possible	-2244
▁ener	-2245
▁yayın	-2246
▁partic	-2247
▁kez	-2248
▁Ab	-2249
▁düşünüyor	-2250
ister	-2251
ides	-2252
▁eas	-2253
ava	-2254
▁araştır	-2255
▁New	-2256
eniz	-2257
▁bun	-2258
▁yağ	-2259
▁Böl	-2260
▁fel	-2261
sik	-2262
▁ard	-2263
ision	-2264
lamak	-2265
▁cour	-2266
▁war	-2267
▁until	-2268
su	-2269
ift	-2270
▁pay	-2271
▁görül	-2272
izik	-2273
ried	-2274
meyi	-2275
▁biç	-2276
ational	-2277
▁("	-2278
▁gön	-2279
odule	-2280
▁conc	-2281
Fr	-2282
▁görev	-2283
ffer	-2284
ither	-2285
izmet	-2286
▁bab	-2287
▁sav	-2288
ksiyon	-2289
üsü	-2290
▁verdi	-2291
▁Güney	-2292
▁done	-2293
aln	-2294
mez	-2295
yen	-2296
▁asker	-2297
kaç	-2298
ret	-2299
Un	-2300
ling	-2301
▁oyn	-2302
▁ölüm	-2303
ower	-2304
nakça	-2305
rak	-2306
That	-2307
ılım	-2308
)"	-2309
ailable	-2310
▁returns	-2311
▁değiştir	-2312
▁Amerika	-2313
tiv	-2314
iter	-2315
▁eng	-2316
▁second	-2317
▁interpr	-2318
isayar	-2319
▁eat	-2320
▁gez	-2321
▁sahiptir	-2322
ench	-2323
ibar	-2324
abilece	-2325
'"	-2326
RE	-2327
oma	-2328
▁Çin	-2329
yanın	-2330
▁returned	-2331
etik	-2332
▁birbir	-2333
ört	-2334
▁dok	-2335
bo	-2336
wh	-2337
▁parameter	-2338
▁eser	-2339
▁Savaşı	-2340
▁produc	-2341
▁kültür	-2342
▁mal	-2343
▁yür	-2344
▁başar	-2345
yo	-2346
▁haf	-2347
▁bütün	-2348
▁herhangi	-2349
Al	-2350
▁bek	-2351
▁kav	-2352
▁yerine	-2353
ases	-2354
isini	-2355
▁kind	-2356
='	-2357
▁path	-2358
ılmıştır	-2359
imal	-2360
▁edildi	-2361
▁high	-2362
▁build	-2363
▁const	-2364
▁hiçbir	-2365
------------	-2366
OS	-2367
aph	-2368
▁Ancak	-2369
▁gelir	-2370
sol	-2371
ıyorum	-2372
orn	-2373
▁whe	-2374
lararası	-2375
ımsız	-2376
▁tur	-2377
▁suc	-2378
▁Q	-2379
din	-2380
▁ulus	-2381
ıp	-2382
alnız	-2383
tılar	-2384
▁open	-2385
uman	-2386
▁grup	-2387
▁erkek	-2388
▁change	-2389
▁edilen	-2390
▁fa	-2391
atur	-2392
▁asked	-2393
sed	-2394
ublic	-2395
▁öğret	-2396
▁nokt	-2397
True	-2398
▁Kan	-2399
▁prof	-2400
▁Afr	-2401
▁kır	-2402
▁haz	-2403
▁teor	-2404
▁less	-2405
▁bre	-2406
▁fil	-2407
gı	-2408
oss	-2409
▁destek	-2410
İn	-2411
▁Top	-2412
▁lim	-2413
ready	-2414
▁fon	-2415
ocket	-2416
har	-2417
▁güney	-2418
▁olmuştur	-2419
▁few	-2420
▁French	-2421
▁important	-2422
PE	-2423
ök	-2424
▁comput	-2425
▁wanted	-2426
ason	-2427
ender	-2428
▁available	-2429
Türk	-2430
io	-2431
det	-2432
[[	-2433
ûmet	-2434
▁İtalyan	-2435
odu	-2436
▁dağ	-2437
▁love	-2438
▁dönüş	-2439
oding	-2440
lardır	-2441
▁consider	-2442
ihi	-2443
▁ABD	-2444
aber	-2445
Type	-2446
time	-2447
▁rağ	-2448
arb	-2449
olojik	-2450
ging	-2451
▁ind	-2452
▁cont	-2453
▁father	-2454
▁already	-2455
ğer	-2456
path	-2457
ished	-2458
lerle	-2459
▁nothing	-2460
rary	-2461
lig	-2462
ization	-2463
▁Bey	-2464
ılması	-2465
▁project	-2466
ended	-2467
usunda	-2468
▁appro	-2469
▁ihtiy	-2470
▁manag	-2471
▁You	-2472
▁zamanda	-2473
▁main	-2474
ij	-2475
▁)	-2476
ced	-2477
siz	-2478
iversity	-2479
▁mean	-2480
enk	-2481
▁vis	-2482
▁topr	-2483
iyan	-2484
▁deniz	-2485
AT	-2486
ution	-2487
▁Ödül	-2488
▁rağmen	-2489
To	-2490
elerin	-2491
▁took	-2492
▁hizmet	-2493
▁sem	-2494
▁Windows	-2495
▁diction	-2496
viron	-2497
ash	-2498
▁why	-2499
kenin	-2500
▁came	-2501
▁mev	-2502
▁Kaynakça	-2503
cl	-2504
▁keep	-2505
▁mill	-2506
▁size	-2507
▁types	-2508
▁kadın	-2509
▁passed	-2510
▁Re	-2511
ology	-2512
urt	-2513
▁eğitim	-2514
▁develop	-2515
▁ardından	-2516
▁tarihinde	-2517
lesi	-2518
▁yerleş	-2519
ole	-2520
işim	-2521
isinin	-2522
▁chang	-2523
ness	-2524
▁ona	-2525
▁itibar	-2526
▁sırasında	-2527
eor	-2528
ica	-2529
▁message	-2530
▁arasındaki	-2531
▁koy	-2532
▁represent	-2533
oto	-2534
tif	-2535
ener	-2536
▁fik	-2537
▁görüş	-2538
ormal	-2539
arım	-2540
▁Büyük	-2541
▁;	-2542
▁Be	-2543
▁cr	-2544
▁diz	-2545
ğında	-2546
aşa	-2547
▁Son	-2548
▁mek	-2549
▁mark	-2550
▁zorunda	-2551
▁girl	-2552
jp	-2553
|[[	-2554
▁Kuzey	-2555
▁command	-2556
bet	-2557
▁bilgi	-2558
▁sever	-2559
▁comple	-2560
▁uç	-2561
▁Her	-2562
sw	-2563
▁character	-2564
▁far	-2565
▁tes	-2566
▁ikinci	-2567
TP	-2568
▁kuş	-2569
▁doing	-2570
▁burada	-2571
▁enough	-2572
anıt	-2573
▁yat	-2574
▁işlem	-2575
ieve	-2576
ırım	-2577
▁tom	-2578
▁kitap	-2579
madı	-2580
py	-2581
ding	-2582
▁Mil	-2583
aba	-2584
▁çağ	-2585
▁ifade	-2586
▁event	-2587
▁hour	-2588
type	-2589
▁mah	-2590
osyal	-2591
▁wait	-2592
sil	-2593
hend	-2594
▁düny	-2595
net	-2596
▁dal	-2597
lak	-2598
▁bölüm	-2599
▁tekrar	-2600
rem	-2601
▁musun	-2602
▁created	-2603
="	-2604
args	-2605
isine	-2606
tiğini	-2607
jpg	-2608
▁gönder	-2609
ıyı	-2610
▁mey	-2611
ina	-2612
quence	-2613
ific	-2614
▁today	-2615
ematik	-2616
▁single	-2617
adolu	-2618
▁dist	-2619
▁hayat	-2620
▁away	-2621
amak	-2622
▁elem	-2623
▁access	-2624
▁seb	-2625
kı	-2626
▁post	-2627
▁San	-2628
▁fakat	-2629
okr	-2630
ene	-2631
▁biçim	-2632
andır	-2633
▁birkaç	-2634
▁karşıl	-2635
▁specified	-2636
örün	-2637
▁uzak	-2638
wise	-2639
▁Sov	-2640
▁Dem	-2641
▁aile	-2642
▁check	-2643
▁Avust	-2644
cript	-2645
▁çoğun	-2646
▁yeniden	-2647
▁mes	-2648
▁yapmak	-2649
üler	-2650
▁ölç	-2651
ont	-2652
anda	-2653
▁API	-2654
sef	-2655
▁men	-2656
▁mind	-2657
itional	-2658
▁toplam	-2659
▁olmayan	-2660
▁state	-2661
▁tarihi	-2662
▁whether	-2663
▁kr	-2664
▁Bur	-2665
▁kaç	-2666
▁web	-2667
▁ziy	-2668
icode	-2669
▁multi	-2670
▁Man	-2671
ilmesi	-2672
▁misin	-2673
.*	-2674
▁job	-2675
▁group	-2676
▁couldn	-2677
LE	-2678
▁Üniversitesi	-2679
▁yalnız	-2680
▁create	-2681
▁alır	-2682
▁İmparatorluğu	-2683
ısır	-2684
▁olabilir	-2685
vent	-2686
▁mot	-2687
▁means	-2688
bit	-2689
sys	-2690
At	-2691
▁yaygın	-2692
▁kısa	-2693
Her	-2694
▁raised	-2695
ölç	-2696
▁mı	-2697
ables	-2698
ustom	-2699
▁learning	-2700
▁Han	-2701
▁write	-2702
gg	-2703
amed	-2704
▁dah	-2705
▁Anadolu	-2706
DE	-2707
▁ana	-2708
▁mad	-2709
iness	-2710
▁youn	-2711
no	-2712
▁sk	-2713
arr	-2714
▁ait	-2715
maları	-2716
▁ru	-2717
▁rad	-2718
▁pack	-2719
▁kardeş	-2720
▁toprak	-2721
▁everything	-2722
tığı	-2723
ately	-2724
▁applic	-2725
▁buy	-2726
inter	-2727
SC	-2728
▁Ül	-2729
▁level	-2730
▁mother	-2731
▁güven	-2732
uluk	-2733
▁disc	-2734
▁struc	-2735
opy	-2736
▁özellikle	-2737
cept	-2738
▁sıcak	-2739
che	-2740
ova	-2741
▁sab	-2742
key	-2743
▁ref	-2744
▁standard	-2745
cü	-2746
▁mik	-2747
▁stay	-2748
▁iter	-2749
ped	-2750
▁değildir	-2751
itial	-2752
▁Ulus	-2753
▁model	-2754
▁adlandır	-2755
leyen	-2756
▁Sp	-2757
osya	-2758
▁Doğu	-2759
▁walk	-2760
▁kullanılan	-2761
tiği	-2762
▁variable	-2763
round	-2764
▁belirt	-2765
▁altında	-2766
ali	-2767
ilt	-2768
▁ca	-2769
▁od	-2770
leep	-2771
▁occ	-2772
▁once	-2773
▁hazır	-2774
▁times	-2775
▁present	-2776
can	-2777
▁He	-2778
▁bulunur	-2779
rik	-2780
▁ele	-2781
▁isn	-2782
▁live	-2783
▁memory	-2784
▁morning	-2785
Don	-2786
▁seçim	-2787
ML	-2788
▁[[	-2789
kara	-2790
ross	-2791
ısında	-2792
NU	-2793
ants	-2794
sing	-2795
▁ses	-2796
ective	-2797
▁şarkıcı	-2798
amaz	-2799
irket	-2800
▁elec	-2801
▁yöntem	-2802
▁party	-2803
▁window	-2804
▁country	-2805
lain	-2806
ahat	-2807
▁Doğ	-2808
▁dictionary	-2809
▁sw	-2810
▁gerçekten	-2811
▁stop	-2812
value	-2813
omb	-2814
▁saf	-2815
yı	-2816
False	-2817
▁gazet	-2818
▁element	-2819
▁plat	-2820
▁ki	-2821
ocol	-2822
uyla	-2823
▁Ger	-2824
ğinde	-2825
▁flag	-2826
aur	-2827
SS	-2828
inci	-2829
▁files	-2830
▁diffic	-2831
şa	-2832
▁Baş	-2833
▁sek	-2834
▁students	-2835
▁siyasetçi	-2836
ored	-2837
▁block	-2838
▁Sovyet	-2839
▁istiyorum	-2840
ga	-2841
▁İsp	-2842
▁control	-2843
back	-2844
ices	-2845
▁Muh	-2846
▁çiz	-2847
▁bağımsız	-2848
▁else	-2849
▁water	-2850
▁defined	-2851
▁nec	-2852
▁context	-2853
▁<	-2854
aban	-2855
▁bah	-2856
▁bytes	-2857
▁El	-2858
ölçümü	-2859
▁added	-2860
vironment	-2861
▁okul	-2862
face	-2863
ester	-2864
))	-2865
No	-2866
eters	-2867
lemek	-2868
hendis	-2869
▁Güneş	-2870
ises	-2871
meni	-2872
▁dayan	-2873
▁try	-2874
▁soon	-2875
iyatro	-2876
ulan	-2877
▁kısm	-2878
▁İslam	-2879
▁month	-2880
▁train	-2881
▁And	-2882
▁edeb	-2883
▁reference	-2884
log	-2885
mir	-2886
ulation	-2887
▁gerçekleştir	-2888
azar	-2889
▁happened	-2890
▁çöz	-2891
▁edilir	-2892
may	-2893
ultan	-2894
▁dair	-2895
▁anlat	-2896
düğ	-2897
▁tomorrow	-2898
▁İsk	-2899
▁either	-2900
▁page	-2901
▁komut	-2902
▁flo	-2903
▁days	-2904
▁Ödülü	-2905
kan	-2906
▁la	-2907
very	-2908
▁Tan	-2909
▁takım	-2910
most	-2911
▁biliyor	-2912
▁Cumhuriyeti	-2913
üb	-2914
▁dışında	-2915
▁Yeni	-2916
▁oldukça	-2917
▁bilinen	-2918
▁bilgisayar	-2919
cut	-2920
anya	-2921
vious	-2922
leti	-2923
▁beaut	-2924
gn	-2925
rite	-2926
undan	-2927
ji	-2928
illi	-2929
ently	-2930
ouble	-2931
▁izin	-2932
▁konu	-2933
Ad	-2934
▁public	-2935
▁değişik	-2936
px	-2937
▁dört	-2938
mit	-2939
▁fail	-2940
iled	-2941
Python	-2942
kat	-2943
▁mas	-2944
meyen	-2945
▁kuvvet	-2946
▁ABI	-2947
His	-2948
▁family	-2949
▁Birliği	-2950
▁idea	-2951
ilecek	-2952
▁during	-2953
▁common	-2954
umb	-2955
▁Le	-2956
▁mov	-2957
▁De	-2958
ably	-2959
ists	-2960
▁Dış	-2961
▁uğr	-2962
▁şeyi	-2963
▁med	-2964
▁örnek	-2965
▁toplum	-2966
▁sözc	-2967
▁Kon	-2968
mesini	-2969
▁yoğun	-2970
mat	-2971
▁gl	-2972
lanır	-2973
▁ziyaret	-2974
pace	-2975
▁Gal	-2976
▁cent	-2977
▁elde	-2978
▁Sh	-2979
▁Müz	-2980
▁Pol	-2981
▁answ	-2982
▁ülkeler	-2983
All	-2984
ema	-2985
roduc	-2986
▁emin	-2987
▁break	-2988
tial	-2989
▁air	-2990
▁beş	-2991
▁Roma	-2992
▁fonksiyon	-2993
test	-2994
▁cap	-2995
▁self	-2996
▁modern	-2997
▁document	-2998
acher	-2999
▁hükûmet	-3000
II	-3001
gesi	-3002
▁longer	-3003
▁oluşan	-3004
▁We	-3005
ecl	-3006
esel	-3007
türü	-3008
lenen	-3009
ami	-3010
dana	-3011
▁anlaş	-3012
pt	-3013
▁match	-3014
ME	-3015
▁"-	-3016
▁Lin	-3017
▁küt	-3018
▁describ	-3019
ute	-3020
▁Hol	-3021
▁bat	-3022
▁Bunun	-3023
▁dünyanın	-3024
▁anal	-3025
▁sonuç	-3026
▁Afrika	-3027
▁construc	-3028
▁bey	-3029
▁small	-3030
▁looking	-3031
que	-3032
▁seen	-3033
▁kor	-3034
▁nesn	-3035
Is	-3036
▁kaps	-3037
ilmektedir	-3038
▁difficult	-3039
▁Gr	-3040
▁yayım	-3041
▁Har	-3042
cısı	-3043
▁kullanılır	-3044
▁ülke	-3045
▁study	-3046
gether	-3047
▁together	-3048
ects	-3049
▁biraz	-3050
yalı	-3051
▁Part	-3052
▁kontrol	-3053
akan	-3054
alth	-3055
arch	-3056
▁şekl	-3057
lâ	-3058
▁köy	-3059
▁defin	-3060
▁seri	-3061
tp	-3062
cap	-3063
actor	-3064
▁Orta	-3065
▁ey	-3066
▁source	-3067
▁sana	-3068
""	-3069
esterday	-3070
▁believe	-3071
ived	-3072
▁leave	-3073
▁written	-3074
▁Mah	-3075
insel	-3076
▁matter	-3077
OR	-3078
resp	-3079
▁Bil	-3080
artış	-3081
▁proper	-3082
▁istediğ	-3083
▁environment	-3084
ming	-3085
▁Fransa	-3086
adık	-3087
▁çoğu	-3088
▁big	-3089
ength	-3090
▁para	-3091
ero	-3092
▁Ah	-3093
▁del	-3094
▁tip	-3095
▁conn	-3096
▁rain	-3097
▁resim	-3098
-----------+	-3099
▁}}	-3100
like	-3101
▁Bel	-3102
tarihi	-3103
▁usually	-3104
Why	-3105
▁saw	-3106
andler	-3107
▁design	-3108
▁&	-3109
▁müzik	-3110
ilar	-3111
▁vardı	-3112
▁başkan	-3113
▁words	-3114
▁günümüz	-3115
bu	-3116
egen	-3117
ival	-3118
▁aff	-3119
▁young	-3120
▁within	-3121
▁friends	-3122
gar	-3123
veç	-3124
▁grub	-3125
▁mez	-3126
mesine	-3127
▁başkent	-3128
aların	-3129
▁bunun	-3130
▁ident	-3131
▁hes	-3132
ased	-3133
iver	-3134
left	-3135
▁Genel	-3136
▁behavi	-3137
▁output	-3138
▁İngilizce	-3139
▁actu	-3140
▁address	-3141
▁uygulam	-3142
bi	-3143
▁free	-3144
▁rather	-3145
Ne	-3146
sağ	-3147
omat	-3148
udur	-3149
▁clos	-3150
▁pres	-3151
ograf	-3152
ending	-3153
▁Mısır	-3154
leriyle	-3155
▁dahil	-3156
▁having	-3157
{{	-3158
▁bro	-3159
▁against	-3160
anc	-3161
anan	-3162
▁happen	-3163
▁Kararlı	-3164
▁Br	-3165
adem	-3166
▁sum	-3167
tık	-3168
▁above	-3169
▁course	-3170
▁classes	-3171
suz	-3172
imiz	-3173
ünkü	-3174
▁interpreter	-3175
ech	-3176
▁suç	-3177
▁teş	-3178
allık	-3179
▁günü	-3180
▁saldır	-3181
ery	-3182
iya	-3183
omen	-3184
▁tic	-3185
▁sıra	-3186
▁platform	-3187
▁attributes	-3188
▁doğal	-3189
▁yönetim	-3190
▁bölgeler	-3191
dum	-3192
üzel	-3193
▁atom	-3194
ha	-3195
mî	-3196
Pro	-3197
▁become	-3198
gal	-3199
▁special	-3200
oph	-3201
iydi	-3202
▁Kral	-3203
▁matematik	-3204
__"	-3205
▁şirket	-3206
▁certain	-3207
ukuk	-3208
col	-3209
SE	-3210
gu	-3211
▁Devletleri	-3212
zon	-3213
oğlu	-3214
▁tartış	-3215
AR	-3216
▁büy	-3217
▁inde	-3218
▁tuple	-3219
▁descrip	-3220
▁body	-3221
▁temsil	-3222
manın	-3223
▁politik	-3224
▁teacher	-3225
▁gerçekleş	-3226
ply	-3227
ared	-3228
▁Bay	-3229
▁bad	-3230
▁gid	-3231
▁known	-3232
ğine	-3233
alıdır	-3234
ux	-3235
iyi	-3236
Some	-3237
ışık	-3238
▁beni	-3239
▁hava	-3240
▁necess	-3241
▁reason	-3242
aces	-3243
▁word	-3244
▁makes	-3245
laması	-3246
▁statement	-3247
iful	-3248
▁sorun	-3249
▁wid	-3250
cle	-3251
▁tele	-3252
▁question	-3253
▁uses	-3254
▁sound	-3255
▁olacak	-3256
▁sak	-3257
▁success	-3258
isyen	-3259
▁öldür	-3260
ane	-3261
▁drink	-3262
▁heard	-3263
▁handler	-3264
eks	-3265
rin	-3266
▁pic	-3267
▁Paşa	-3268
▁davran	-3269
fon	-3270
atör	-3271
▁Ber	-3272
▁İlk	-3273
▁ann	-3274
akter	-3275
gür	-3276
▁fizik	-3277
▁hayvan	-3278
ılığı	-3279
▁istiyor	-3280
▁boz	-3281
▁şair	-3282
thers	-3283
▁kalan	-3284
▁merkezi	-3285
▁yaptığı	-3286
▁sci	-3287
__()"	-3288
▁hear	-3289
▁working	-3290
amb	-3291
taş	-3292
▁Ok	-3293
▁fre	-3294
▁mode	-3295
▁Ankara	-3296
ends	-3297
▁config	-3298
▁kullanım	-3299
abı	-3300
ison	-3301
ources	-3302
▁creat	-3303
▁hemen	-3304
ination	-3305
▁sistemi	-3306
eme	-3307
ention	-3308
sen	-3309
ücr	-3310
▁characters	-3311
▁gh	-3312
üncü	-3313
▁İran	-3314
IT	-3315
▁himself	-3316
▁Arap	-3317
▁commun	-3318
ilebilir	-3319
lerdir	-3320
dik	-3321
side	-3322
mel	-3323
▁incre	-3324
▁normal	-3325
▁useful	-3326
say	-3327
▁rap	-3328
adaki	-3329
▁ağır	-3330
▁İz	-3331
▁rol	-3332
▁field	-3333
▁adv	-3334
▁library	-3335
▁answer	-3336
▁inf	-3337
esinden	-3338
▁others	-3339
alle	-3340
▁neg	-3341
▁yanı	-3342
▁detail	-3343
▁beautiful	-3344
▁orig	-3345
▁built	-3346
▁someone	-3347
▁öğ	-3348
iliğ	-3349
▁inşa	-3350
▁oyun	-3351
vern	-3352
▁kolay	-3353
▁started	-3354
ots	-3355
used	-3356
▁alb	-3357
▁keyword	-3358
▁şu	-3359
mail	-3360
▁bay	-3361
itive	-3362
▁Film	-3363
▁company	-3364
ref	-3365
▁Bar	-3366
~~~~~~~~	-3367
▁bağlantılar	-3368
anlar	-3369
member	-3370
ception	-3371
▁etkile	-3372
kil	-3373
▁keş	-3374
▁koş	-3375
madan	-3376
gy	-3377
afa	-3378
üld	-3379
▁Tek	-3380
▁geçen	-3381
▁Sultan	-3382
ıyordu	-3383
▁pur	-3384
▁Batı	-3385
▁specific	-3386
▁döneminde	-3387
aper	-3388
▁aut	-3389
▁felsef	-3390
siniz	-3391
teki	-3392
ality	-3393
▁iddi	-3394
▁raise	-3395
▁tekn	-3396
▁user	-3397
▁wonder	-3398
▁Mal	-3399
▁gave	-3400
▁begin	-3401
▁Brit	-3402
▁human	-3403
▁simple	-3404
▁yesterday	-3405
aka	-3406
Amer	-3407
imar	-3408
▁How	-3409
lanmıştır	-3410
▁directory	-3411
Get	-3412
▁mevcut	-3413
▁transl	-3414
▁sonuc	-3415
body	-3416
▁dünya	-3417
▁collec	-3418
▁olmadığını	-3419
yk	-3420
▁$	-3421
ato	-3422
▁Ph	-3423
tere	-3424
umlar	-3425
Please	-3426
▁yemek	-3427
▁please	-3428
lamıştır	-3429
▁yalnızca	-3430
▁large	-3431
abil	-3432
lendi	-3433
ele	-3434
▁senin	-3435
bed	-3436
ike	-3437
reen	-3438
▁Kom	-3439
▁silah	-3440
Set	-3441
asından	-3442
▁söyley	-3443
▁deb	-3444
▁pek	-3445
▁mist	-3446
isk	-3447
▁Ser	-3448
kün	-3449
imdi	-3450
▁dip	-3451
▁link	-3452
▁strings	-3453
▁position	-3454
▁Tok	-3455
dadır	-3456
asyonu	-3457
▁dönemde	-3458
asa	-3459
▁net	-3460
▁bunu	-3461
▁modu	-3462
▁Fransızca	-3463
asal	-3464
lecek	-3465
parse	-3466
▁Lond	-3467
▁park	-3468
▁kaldır	-3469
aray	-3470
▁Port	-3471
▁ayrıca	-3472
landa	-3473
▁sayıda	-3474
▁çalışmalar	-3475
▁İş	-3476
ğunu	-3477
▁dog	-3478
▁yüzyılda	-3479
ırı	-3480
call	-3481
light	-3482
▁thir	-3483
ros	-3484
▁oğ	-3485
▁serv	-3486
▁çarp	-3487
▁general	-3488
emi	-3489
loc	-3490
▁ate	-3491
▁savun	-3492
arş	-3493
ught	-3494
earch	-3495
ements	-3496
▁telev	-3497
action	-3498
Not	-3499
com	-3500
dim	-3501
▁soc	-3502
▁biy	-3503
▁pot	-3504
▁sonucu	-3505
▁yazarı	-3506
▁kod	-3507
rect	-3508
▁Des	-3509
ledge	-3510
▁empty	-3511
▁Ed	-3512
iniz	-3513
▁Japanese	-3514
ms	-3515
ested	-3516
ısından	-3517
dık	-3518
ğın	-3519
▁Per	-3520
▁short	-3521
▁mühendis	-3522
▁remember	-3523
anyol	-3524
▁Dosya	-3525
▁sleep	-3526
etr	-3527
▁MÖ	-3528
▁computer	-3529
▁Dan	-3530
▁bugün	-3531
▁merak	-3532
▁reading	-3533
yüz	-3534
▁meeting	-3535
Str	-3536
müştür	-3537
▁çıkan	-3538
▁ber	-3539
▁şarkı	-3540
▁perform	-3541
▁Örneğin	-3542
pen	-3543
▁late	-3544
meler	-3545
▁food	-3546
▁watch	-3547
▁eleştir	-3548
▁gelenek	-3549
▁parents	-3550
ai	-3551
▁yeme	-3552
▁kaldı	-3553
ators	-3554
▁lead	-3555
▁kuruluş	-3556
ires	-3557
cel	-3558
▁Res	-3559
▁Almanya	-3560
▁meydana	-3561
▁gerektiğini	-3562
fen	-3563
ned	-3564
▁side	-3565
▁wasn	-3566
▁yarat	-3567
▁appear	-3568
▁wouldn	-3569
▁several	-3570
MA	-3571
▁Car	-3572
▁pract	-3573
▁çıktı	-3574
▁Rusya	-3575
▁whole	-3576
▁öğrenc	-3577
▁problems	-3578
iir	-3579
▁HT	-3580
▁corresp	-3581
▁integer	-3582
PEP	-3583
▁mom	-3584
▁artık	-3585
▁calls	-3586
▁getting	-3587
▁dolayı	-3588
▁sequence	-3589
▁expression	-3590
uck	-3591
▁adam	-3592
lediye	-3593
▁Japon	-3594
▁light	-3595
lüğ	-3596
▁Bun	-3597
▁ince	-3598
▁needs	-3599
partial	-3600
ümkün	-3601
▁least	-3602
▁anlamına	-3603
▁view	-3604
▁modules	-3605
acağım	-3606
ka	-3607
aceb	-3608
▁custom	-3609
▁discus	-3610
PP	-3611
icy	-3612
lıy	-3613
▁rece	-3614
▁sosyal	-3615
▁ülkenin	-3616
▁particular	-3617
eth	-3618
typ	-3619
lidir	-3620
▁music	-3621
▁yeter	-3622
tım	-3623
▁nit	-3624
▁yüksel	-3625
▁To	-3626
irde	-3627
▁cond	-3628
larıyla	-3629
ments	-3630
▁kesin	-3631
....	-3632
azi	-3633
ures	-3634
▁rak	-3635
adığı	-3636
izyon	-3637
▁indic	-3638
{\	-3639
iği	-3640
lor	-3641
main	-3642
▁input	-3643
▁benzer	-3644
▁Mat	-3645
▁imz	-3646
ipedia	-3647
ğinden	-3648
▁determ	-3649
ugh	-3650
level	-3651
module	-3652
▁exact	-3653
▁accident	-3654
hip	-3655
▁iy	-3656
▁table	-3657
▁provide	-3658
▁correspond	-3659
utu	-3660
list	-3661
▁fact	-3662
▁loop	-3663
▁böyle	-3664
ampiyon	-3665
tures	-3666
▁contin	-3667
▁parser	-3668
▁görünüyor	-3669
ware	-3670
▁syn	-3671
baş	-3672
eyse	-3673
▁verilen	-3674
▁seem	-3675
▁Added	-3676
▁making	-3677
▁elektron	-3678
iting	-3679
ıldığı	-3680
▁hours	-3681
▁konum	-3682
▁bakınız	-3683
mür	-3684
▁biz	-3685
eceğini	-3686
tay	-3687
▁ec	-3688
▁tried	-3689
Let	-3690
div	-3691
▁conf	-3692
▁full	-3693
Or	-3694
now	-3695
etim	-3696
▁Ali	-3697
▁Kem	-3698
▁Meh	-3699
▁çevr	-3700
▁System	-3701
▁initial	-3702
UT	-3703
▁cho	-3704
sole	-3705
▁wrong	-3706
▁yerel	-3707
âr	-3708
başk	-3709
ches	-3710
▁door	-3711
▁Yah	-3712
▁div	-3713
▁separ	-3714
▁intern	-3715
▁otur	-3716
▁yapım	-3717
lanmış	-3718
▁çevir	-3719
▁sayısı	-3720
See	-3721
ino	-3722
▁spor	-3723
▁terc	-3724
▁ortak	-3725
▁PyObject	-3726
my	-3727
ept	-3728
ayet	-3729
▁Str	-3730
▁Daha	-3731
▁teknik	-3732
▁biridir	-3733
▁renk	-3734
▁says	-3735
▁kam	-3736
▁When	-3737
▁section	-3738
dız	-3739
oke	-3740
bytes	-3741
▁near	-3742
▁Tarih	-3743
▁ünivers	-3744
esidir	-3745
.]]	-3746
▁bes	-3747
▁göç	-3748
▁Merkez	-3749
▁static	-3750
▁Krallık	-3751
code	-3752
▁fır	-3753
▁hoş	-3754
▁benz	-3755
▁uygun	-3756
▁wants	-3757
Are	-3758
▁God	-3759
ordin	-3760
▁fall	-3761
▁pick	-3762
▁subclass	-3763
By	-3764
▁exc	-3765
▁future	-3766
iss	-3767
oci	-3768
vec	-3769
▁ext	-3770
▁exten	-3771
▁business	-3772
ps	-3773
engin	-3774
▁başına	-3775
▁Val	-3776
▁ürün	-3777
▁deney	-3778
▁seems	-3779
Re	-3780
ott	-3781
ızı	-3782
▁hot	-3783
▁four	-3784
▁Japonya	-3785
.__	-3786
aps	-3787
▁arab	-3788
▁truth	-3789
▁gitmek	-3790
▁implementation	-3791
ency	-3792
▁Col	-3793
process	-3794
pose	-3795
▁There	-3796
▁işlet	-3797
▁electr	-3798
▁mümkün	-3799
▁Wikiversity	-3800
▁um	-3801
▁muh	-3802
▁city	-3803
▁prom	-3804
▁takes	-3805
▁dikkat	-3806
▁yıldız	-3807
NULL	-3808
▁ilan	-3809
apping	-3810
▁govern	-3811
▁İngiltere	-3812
işi	-3813
off	-3814
▁base	-3815
▁containing	-3816
atif	-3817
▁questions	-3818
tlaş	-3819
▁law	-3820
count	-3821
▁karakter	-3822
▁Der	-3823
▁tav	-3824
lığını	-3825
taki	-3826
▁needed	-3827
▁elements	-3828
▁lost	-3829
▁power	-3830
▁Ac	-3831
reate	-3832
▁oluşur	-3833
bay	-3834
▁Den	-3835
meden	-3836
▁repl	-3837
▁ekonomik	-3838
▁provides	-3839
dif	-3840
view	-3841
▁Mac	-3842
▁works	-3843
▁dat	-3844
▁İtalya	-3845
▁looked	-3846
▁calling	-3847
sv	-3848
stat	-3849
▁writing	-3850
edeyse	-3851
▁içerisinde	-3852
bar	-3853
raw	-3854
▁ayrı	-3855
▁enter	-3856
▁boş	-3857
▁çift	-3858
▁ortal	-3859
▁istedi	-3860
arlar	-3861
▁include	-3862
echn	-3863
▁hızlı	-3864
▁quite	-3865
play	-3866
stit	-3867
▁vir	-3868
▁Başkanı	-3869
new	-3870
asyn	-3871
düğü	-3872
▁asla	-3873
istory	-3874
****************	-3875
▁early	-3876
▁güzel	-3877
":	-3878
pat	-3879
Bana	-3880
load	-3881
uklu	-3882
▁bed	-3883
▁bor	-3884
▁Sur	-3885
▁Ölüm	-3886
▁clear	-3887
▁otherwise	-3888
SI	-3889
Can	-3890
uel	-3891
ısını	-3892
▁genç	-3893
▁tool	-3894
▁yörün	-3895
▁trying	-3896
aca	-3897
format	-3898
dot	-3899
▁roman	-3900
▁pa	-3901
▁application	-3902
ynı	-3903
lect	-3904
posed	-3905
▁Ap	-3906
▁Can	-3907
▁ted	-3908
▁Must	-3909
▁asıl	-3910
▁mant	-3911
▁hesap	-3912
ability	-3913
▁siyasi	-3914
▁languages	-3915
▁All	-3916
arser	-3917
▁yapan	-3918
pression	-3919
▁itibaren	-3920
▁See	-3921
▁civ	-3922
itler	-3923
▁ign	-3924
ached	-3925
▁hatır	-3926
▁multiple	-3927
osu	-3928
ıma	-3929
▁cir	-3930
▁Bas	-3931
▁letter	-3932
ılabilir	-3933
▁sonunda	-3934
mur	-3935
▁Olay	-3936
▁amaç	-3937
▁ayak	-3938
▁gece	-3939
▁ifad	-3940
string	-3941
▁experi	-3942
ury	-3943
emen	-3944
ütfen	-3945
▁oyuncusu	-3946
San	-3947
cul	-3948
▁move	-3949
des	-3950
sub	-3951
ession	-3952
▁named	-3953
Par	-3954
cio	-3955
▁__	-3956
▁kötü	-3957
▁oran	-3958
▁pret	-3959
import	-3960
▁yourself	-3961
boy	-3962
ives	-3963
▁sey	-3964
▁aşağı	-3965
▁resmî	-3966
▁Millet	-3967
▁numbers	-3968
ilip	-3969
▁kah	-3970
▁almak	-3971
▁erken	-3972
ibility	-3973
▁length	-3974
▁konusunda	-3975
_{	-3976
bon	-3977
▁Hay	-3978
▁yorum	-3979
ült	-3980
iliği	-3981
▁ada	-3982
▁kas	-3983
▁tep	-3984
ilere	-3985
default	-3986
▁options	-3987
▁Go	-3988
reet	-3989
uluş	-3990
▁Fak	-3991
▁hid	-3992
dat	-3993
▁Yıl	-3994
▁soy	-3995
▁step	-3996
▁yani	-3997
python	-3998
▁yazılım	-3999
▁contains	-4000
▁bulunduğu	-4001
ilya	-4002
▁Hal	-4003
▁baz	-4004
▁ilet	-4005
▁alanı	-4006
fa	-4007
▁Kö	-4008
üslüm	-4009
▁yılı	-4010
▁zero	-4011
▁looks	-4012
These	-4013
iller	-4014
▁assign	-4015
▁protocol	-4016
▁necessary	-4017
ump	-4018
▁What	-4019
▁based	-4020
ivalent	-4021
▁Paris	-4022
▁yerleşim	-4023
ET	-4024
dın	-4025
layı	-4026
raph	-4027
with	-4028
lasik	-4029
uation	-4030
▁server	-4031
▁knowledge	-4032
▁Co	-4033
▁five	-4034
▁yaban	-4035
▁directly	-4036
Ay	-4037
tın	-4038
ula	-4039
▁Ev	-4040
▁proj	-4041
▁ünlü	-4042
▁adını	-4043
▁geçer	-4044
▁conver	-4045
dım	-4046
rez	-4047
irst	-4048
▁mag	-4049
▁çap	-4050
istik	-4051
▁ress	-4052
▁öldü	-4053
▁below	-4054
otoğraf	-4055
alarında	-4056
▁tamamen	-4057
▁provided	-4058
▁verir	-4059
▁report	-4060
▁yüzden	-4061
▁kuruldu	-4062
ched	-4063
▁dili	-4064
ording	-4065
▁harita	-4066
mon	-4067
ields	-4068
▁hang	-4069
▁remov	-4070
▁anyone	-4071
▁Mü	-4072
▁TV	-4073
ajor	-4074
▁local	-4075
▁sl	-4076
▁moment	-4077
▁İspanyol	-4078
▁edilmiştir	-4079
illa	-4080
▁köken	-4081
Türkiye	-4082
▁meaning	-4083
▁insanlar	-4084
?"	-4085
ân	-4086
ric	-4087
▁woman	-4088
▁Bölgesi	-4089
])	-4090
▁fig	-4091
üfusu	-4092
▁doğumlu	-4093
▁encoding	-4094
AC	-4095
▁di	-4096
amam	-4097
amay	-4098
ansı	-4099
aceback	-4100
foo	-4101
utes	-4102
▁faal	-4103
ache	-4104
▁cez	-4105
▁kayı	-4106
▁police	-4107
▁optional	-4108
▁probably	-4109
▁later	-4110
▁seviy	-4111
▁itself	-4112
▁though	-4113
Ch	-4114
mos	-4115
ray	-4116
lied	-4117
▁ila	-4118
lenir	-4119
ideo	-4120
▁mock	-4121
▁ödül	-4122
▁knows	-4123
ilename	-4124
▁socket	-4125
▁similar	-4126
Dan	-4127
els	-4128
▁along	-4129
uch	-4130
▁books	-4131
With	-4132
▁Ben	-4133
▁DNA	-4134
▁mac	-4135
ilmek	-4136
▁traf	-4137
}}	-4138
ete	-4139
▁""	-4140
esti	-4141
▁Eur	-4142
After	-4143
ölüm	-4144
▁easy	-4145
▁kelim	-4146
▁doctor	-4147
▁kaybet	-4148
▁condition	-4149
▁definition	-4150
▁fo	-4151
▁conv	-4152
▁sağlık	-4153
▁pattern	-4154
ican	-4155
open	-4156
▁avoid	-4157
▁So	-4158
▁Tur	-4159
▁ret	-4160
▁doğu	-4161
▁yine	-4162
▁öner	-4163
sim	-4164
şam	-4165
▁Christ	-4166
▁Ot	-4167
math	-4168
İngil	-4169
▁iler	-4170
▁hukuk	-4171
▁İsveç	-4172
▁health	-4173
▁toplan	-4174
One	-4175
iki	-4176
▁yık	-4177
lying	-4178
▁keşf	-4179
alarda	-4180
laştır	-4181
▁sahibi	-4182
ğa	-4183
▁cam	-4184
▁tre	-4185
elere	-4186
▁Geor	-4187
▁lock	-4188
▁sinema	-4189
uluğu	-4190
▁belirli	-4191
▁Wikipedia	-4192
▁interface	-4193
uf	-4194
ooks	-4195
▁Asya	-4196
ülen	-4197
▁işaret	-4198
ristiyan	-4199
▁ediyorum	-4200
▁eşit	-4201
▁olsa	-4202
▁teach	-4203
ient	-4204
hemat	-4205
▁hafta	-4206
▁running	-4207
▁except	-4208
▁station	-4209
rew	-4210
adın	-4211
▁anlay	-4212
▁package	-4213
from	-4214
▁ders	-4215
▁game	-4216
AN	-4217
▁pi	-4218
ceed	-4219
Bunun	-4220
▁living	-4221
▁results	-4222
alim	-4223
▁Mod	-4224
▁ölçü	-4225
olution	-4226
▁_	-4227
obal	-4228
▁ili	-4229
▁teh	-4230
ilerini	-4231
▁behavior	-4232
▁almaktadır	-4233
▁Gu	-4234
adım	-4235
▁Amerikan	-4236
Val	-4237
▁Kat	-4238
▁est	-4239
▁gözlem	-4240
▁kutusu	-4241
▁zengin	-4242
▁başkanı	-4243
▁gezegen	-4244
▁sonraki	-4245
▁Biz	-4246
▁Rob	-4247
▁şeklinde	-4248
lex	-4249
▁ton	-4250
▁York	-4251
▁uluslararası	-4252
':	-4253
oin	-4254
ume	-4255
Note	-4256
▁Kır	-4257
Every	-4258
▁happy	-4259
▁kurulan	-4260
▁bank	-4261
▁profes	-4262
DP	-4263
uma	-4264
uyu	-4265
aced	-4266
▁Not	-4267
▁ord	-4268
▁cla	-4269
▁zar	-4270
enter	-4271
esiyle	-4272
▁faaliyet	-4273
▁variables	-4274
sk	-4275
▁comes	-4276
▁equal	-4277
▁tiyatro	-4278
FC	-4279
rove	-4280
▁gar	-4281
acağı	-4282
lilik	-4283
▁amac	-4284
▁activ	-4285
▁adıyla	-4286
▁talking	-4287
ücü	-4288
dict	-4289
imin	-4290
çısı	-4291
▁wish	-4292
▁Mustafa	-4293
▁görüntü	-4294
!"	-4295
▁Ne	-4296
▁Lat	-4297
imleri	-4298
▁German	-4299
▁olduğundan	-4300
ru	-4301
ged	-4302
▁kıy	-4303
bin	-4304
dar	-4305
func	-4306
size	-4307
▁sugg	-4308
▁işlev	-4309
lav	-4310
▁girdi	-4311
Handler	-4312
▁materi	-4313
▁instruc	-4314
▁neredeyse	-4315
DI	-4316
obj	-4317
lock	-4318
▁maç	-4319
org	-4320
way	-4321
date	-4322
icro	-4323
umlu	-4324
▁Sat	-4325
▁hâlâ	-4326
▁knew	-4327
▁nedenle	-4328
▁population	-4329
▁Hav	-4330
▁öde	-4331
liğini	-4332
▁satın	-4333
estival	-4334
▁ediyor	-4335
▁ressam	-4336
HP	-4337
ml	-4338
ani	-4339
▁Tak	-4340
alled	-4341
▁altı	-4342
▁hast	-4343
▁bakım	-4344
▁movie	-4345
▁haline	-4346
▁yoktur	-4347
▁configur	-4348
▁yüzyılın	-4349
OC	-4350
▁Sa	-4351
▁Mak	-4352
▁Müslüm	-4353
▁United	-4354
▁bildir	-4355
▁stream	-4356
▁tahmin	-4357
▁değişken	-4358
▁Mus	-4359
▁cat	-4360
▁küm	-4361
şehir	-4362
▁Kemal	-4363
▁hüküm	-4364
▁space	-4365
::	-4366
erc	-4367
ude	-4368
▁Yap	-4369
▁batı	-4370
▁tanın	-4371
▁yüzey	-4372
▁beraber	-4373
▁yıllarda	-4374
AL	-4375
▁flow	-4376
▁kayn	-4377
ilerine	-4378
▁yıllık	-4379
▁Olaylar	-4380
▁student	-4381
▁parameters	-4382
lif	-4383
info	-4384
uvar	-4385
▁haven	-4386
only	-4387
▁Göl	-4388
▁void	-4389
masının	-4390
▁required	-4391
▁Pa	-4392
▁İç	-4393
ential	-4394
▁surpr	-4395
▁sürdür	-4396
aket	-4397
▁ago	-4398
ories	-4399
▁final	-4400
▁story	-4401
recated	-4402
▁tercih	-4403
▁yaşayan	-4404
kli	-4405
rat	-4406
Jap	-4407
vat	-4408
▁Beş	-4409
cade	-4410
▁Diğer	-4411
▁death	-4412
▁front	-4413
▁office	-4414
▁married	-4415
osp	-4416
▁kural	-4417
▁actually	-4418
htem	-4419
imler	-4420
▁tarım	-4421
▁supported	-4422
▁bilinmeyen	-4423
iev	-4424
emin	-4425
▁sym	-4426
ample	-4427
talık	-4428
▁kavram	-4429
▁Avustur	-4430
▁yanında	-4431
▁dışarı	-4432
alarının	-4433
▁everyone	-4434
▁expected	-4435
▁İskender	-4436
isyon	-4437
unday	-4438
▁cold	-4439
▁clean	-4440
▁düşük	-4441
▁frame	-4442
▁metot	-4443
ox	-4444
luğun	-4445
where	-4446
▁phys	-4447
▁Tokyo	-4448
▁sefer	-4449
▁almost	-4450
yar	-4451
▁ih	-4452
▁alone	-4453
▁trave	-4454
▁descriptor	-4455
▁kel	-4456
▁ayır	-4457
▁grow	-4458
▁türü	-4459
▁çevres	-4460
▁Em	-4461
eyen	-4462
▁dak	-4463
▁Çağ	-4464
Write	-4465
▁göst	-4466
▁subject	-4467
▁Hristiyan	-4468
iyim	-4469
▁ticaret	-4470
bah	-4471
oded	-4472
▁yazı	-4473
istance	-4474
▁buffer	-4475
▁econom	-4476
▁üretim	-4477
▁correct	-4478
▁logging	-4479
▁minutes	-4480
▁equivalent	-4481
dom	-4482
ğım	-4483
▁Sü	-4484
spec	-4485
çiler	-4486
▁cook	-4487
▁oluşturur	-4488
obel	-4489
site	-4490
uldu	-4491
▁Com	-4492
▁range	-4493
lüğü	-4494
▁mach	-4495
▁wife	-4496
▁kalın	-4497
▁Uluslararası	-4498
▁Oy	-4499
▁katıl	-4500
▁modif	-4501
▁ihtiyac	-4502
▁düzey	-4503
unk	-4504
icle	-4505
ftware	-4506
▁olduğ	-4507
▁özgür	-4508
alarını	-4509
▁careful	-4510
▁decided	-4511
data	-4512
ilos	-4513
anger	-4514
▁dizi	-4515
▁face	-4516
▁ettiği	-4517
OT	-4518
▁dam	-4519
▁Char	-4520
ikleri	-4521
▁research	-4522
ham	-4523
From	-4524
▁hik	-4525
ikalı	-4526
▁dosy	-4527
▁aktar	-4528
ocu	-4529
ush	-4530
▁Bağ	-4531
▁lines	-4532
▁record	-4533
▁açısından	-4534
sı	-4535
▁Sch	-4536
asıyla	-4537
eceğim	-4538
untime	-4539
▁style	-4540
▁yardımcı	-4541
head	-4542
atürk	-4543
vered	-4544
▁load	-4545
lığına	-4546
selves	-4547
▁içeren	-4548
▁etmiştir	-4549
▁instances	-4550
▁unc	-4551
iddet	-4552
▁sanatçı	-4553
▁sonucunda	-4554
etime	-4555
lılık	-4556
▁visit	-4557
▁Ölümler	-4558
▁Doğumlar	-4559
▁structure	-4560
âh	-4561
abor	-4562
▁etkin	-4563
▁heart	-4564
▁strong	-4565
▁televizyon	-4566
Did	-4567
güt	-4568
yum	-4569
malı	-4570
▁Sel	-4571
▁boyut	-4572
indedir	-4573
doğ	-4574
▁manager	-4575
▁request	-4576
sq	-4577
Biz	-4578
ağan	-4579
▁rek	-4580
▁lider	-4581
lış	-4582
ğimi	-4583
ısın	-4584
▁cut	-4585
▁kork	-4586
▁başlat	-4587
▁gösterir	-4588
bil	-4589
▁Bul	-4590
▁vol	-4591
thread	-4592
▁factor	-4593
SA	-4594
oç	-4595
itch	-4596
▁cis	-4597
▁gide	-4598
▁denir	-4599
▁çalıştı	-4600
▁fotoğraf	-4601
akes	-4602
▁Sal	-4603
▁tat	-4604
▁şiir	-4605
▁accep	-4606
▁karşılık	-4607
▁gitti	-4608
▁major	-4609
▁resmi	-4610
▁diye	-4611
▁mess	-4612
▁derec	-4613
▁mekan	-4614
▁çünkü	-4615
▁Partisi	-4616
▁Bak	-4617
illiam	-4618
▁brother	-4619
ius	-4620
▁psik	-4621
▁albüm	-4622
▁olmasına	-4623
▁lat	-4624
▁byte	-4625
Imp	-4626
emb	-4627
▁Uz	-4628
likle	-4629
▁Eski	-4630
ğından	-4631
İngiliz	-4632
▁cumhur	-4633
▁including	-4634
ann	-4635
ogn	-4636
▁goes	-4637
▁past	-4638
▁attem	-4639
▁bileş	-4640
▁bitir	-4641
▁bought	-4642
▁widget	-4643
▁details	-4644
▁Avustral	-4645
▁gem	-4646
lukla	-4647
▁half	-4648
▁hope	-4649
▁Sistem	-4650
Be	-4651
Sp	-4652
iving	-4653
▁previous	-4654
").	-4655
tax	-4656
▁asyn	-4657
▁auth	-4658
▁telefon	-4659
▁corresponding	-4660
kim	-4661
▁Sar	-4662
▁kir	-4663
▁They	-4664
▁cost	-4665
ildiği	-4666
▁considered	-4667
▁Hat	-4668
print	-4669
▁ilçe	-4670
▁operations	-4671
▁eg	-4672
▁millî	-4673
earning	-4674
▁uygulan	-4675
▁olduğuna	-4676
NT	-4677
ety	-4678
▁ut	-4679
▁Bazı	-4680
▁Mars	-4681
▁madd	-4682
▁valid	-4683
roduction	-4684
ask	-4685
▁cause	-4686
▁associ	-4687
▁systems	-4688
Our	-4689
eder	-4690
▁kıyı	-4691
arning	-4692
▁birey	-4693
▁sezon	-4694
▁yönetici	-4695
ayi	-4696
kür	-4697
win	-4698
ious	-4699
▁Sim	-4700
▁Java	-4701
▁Dav	-4702
error	-4703
yalet	-4704
▁----	-4705
boyutu	-4706
▁government	-4707
orld	-4708
▁kanıt	-4709
▁allows	-4710
▁Do	-4711
▁Te	-4712
best	-4713
aller	-4714
lediy	-4715
▁araç	-4716
▁süreç	-4717
▁States	-4718
▁çekirde	-4719
Av	-4720
acy	-4721
▁Af	-4722
ışın	-4723
▁Lib	-4724
▁Uni	-4725
▁açı	-4726
▁idi	-4727
▁anda	-4728
▁fore	-4729
▁bölge	-4730
AD	-4731
ğına	-4732
menin	-4733
elerini	-4734
▁difference	-4735
kek	-4736
kın	-4737
izin	-4738
ean	-4739
▁mid	-4740
cılık	-4741
enler	-4742
lamış	-4743
▁Park	-4744
▁altern	-4745
▁ortalama	-4746
▁Mon	-4747
tiler	-4748
▁extr	-4749
▁unut	-4750
▁search	-4751
indistan	-4752
▁exactly	-4753
gs	-4754
▁veri	-4755
▁yolu	-4756
▁ulusal	-4757
▁kazandı	-4758
▁müzisyen	-4759
▁Cumhuriyet	-4760
ising	-4761
▁anim	-4762
▁educ	-4763
▁across	-4764
▁identif	-4765
dün	-4766
hel	-4767
oks	-4768
▁Imp	-4769
▁Kız	-4770
edeki	-4771
▁harf	-4772
▁leav	-4773
▁güçlü	-4774
olojisi	-4775
▁gerekir	-4776
▁install	-4777
ste	-4778
svg	-4779
Many	-4780
rank	-4781
▁Ste	-4782
▁dig	-4783
alloc	-4784
aring	-4785
divid	-4786
ograph	-4787
▁Londra	-4788
▁became	-4789
▁coming	-4790
▁display	-4791
▁sentence	-4792
'",	-4793
çak	-4794
▁Qu	-4795
File	-4796
gisi	-4797
▁Fin	-4798
▁aldığı	-4799
▁nüfusu	-4800
outh	-4801
▁Nor	-4802
▁kök	-4803
▁hold	-4804
▁insanı	-4805
deb	-4806
amadı	-4807
deniz	-4808
▁sort	-4809
▁town	-4810
▁Nobel	-4811
▁earth	-4812
▁store	-4813
▁Kı	-4814
Have	-4815
imum	-4816
obüs	-4817
▁Add	-4818
▁Yer	-4819
▁çat	-4820
urther	-4821
▁değerlendir	-4822
mar	-4823
langı	-4824
▁Comm	-4825
▁tarz	-4826
▁sebeb	-4827
▁taken	-4828
▁action	-4829
▁changes	-4830
▁weather	-4831
---------+	-4832
pri	-4833
top	-4834
▁ip	-4835
▁cev	-4836
▁gök	-4837
ribut	-4838
▁mimar	-4839
lebilir	-4840
▁script	-4841
ID	-4842
sın	-4843
ozof	-4844
▁fav	-4845
▁grand	-4846
▁taşın	-4847
▁header	-4848
aması	-4849
elerinin	-4850
ief	-4851
lıkla	-4852
▁Demir	-4853
▁cases	-4854
▁etraf	-4855
▁inside	-4856
▁yönelik	-4857
▁amacıyla	-4858
elerde	-4859
▁sebep	-4860
masıyla	-4861
▁immedi	-4862
▁gereken	-4863
▁etmektedir	-4864
Met	-4865
▁hale	-4866
▁söyl	-4867
▁Is	-4868
ount	-4869
▁İyi	-4870
▁orta	-4871
▁tree	-4872
▁expect	-4873
▁complet	-4874
ands	-4875
kodu	-4876
▁aks	-4877
▁Hint	-4878
▁herk	-4879
▁effect	-4880
▁various	-4881
onu	-4882
ehri	-4883
mediğ	-4884
▁orman	-4885
▁yarış	-4886
▁Intern	-4887
▁myself	-4888
▁supports	-4889
}{\	-4890
pend	-4891
▁Don	-4892
▁dışı	-4893
▁eyes	-4894
▁söyled	-4895
▁elektrik	-4896
gü	-4897
bek	-4898
▁ID	-4899
isesi	-4900
▁selec	-4901
▁complex	-4902
▁playing	-4903
item	-4904
üksek	-4905
▁These	-4906
▁tasar	-4907
▁sağlar	-4908
▁changed	-4909
▁thinking	-4910
'.	-4911
duce	-4912
unch	-4913
ısına	-4914
▁fikir	-4915
ındadır	-4916
▁outside	-4917
▁original	-4918
AB	-4919
ias	-4920
oub	-4921
üyle	-4922
▁tel	-4923
▁Mill	-4924
ısının	-4925
▁false	-4926
aktadır	-4927
▁miktar	-4928
▁Devleti	-4929
▁bulundu	-4930
▁hastalık	-4931
▁karşılaş	-4932
init	-4933
oint	-4934
▁Şehir	-4935
▁şiddet	-4936
▁constant	-4937
▁//	-4938
Eğer	-4939
▁Med	-4940
▁öne	-4941
bakan	-4942
▁began	-4943
▁sırada	-4944
▁yanlış	-4945
▁Program	-4946
▁building	-4947
IP	-4948
▁iss	-4949
▁Aynı	-4950
▁almıştır	-4951
']	-4952
▁meş	-4953
start	-4954
▁upon	-4955
üldü	-4956
▁Sen	-4957
bölüm	-4958
uyordu	-4959
▁giriş	-4960
▁picture	-4961
▁yüzölçümü	-4962
reg	-4963
aten	-4964
ayın	-4965
▁enj	-4966
echan	-4967
▁fire	-4968
▁seni	-4969
▁kısmı	-4970
▁energy	-4971
▁namespace	-4972
▁değişiklik	-4973
kar	-4974
ses	-4975
▁Kap	-4976
▁kendini	-4977
▁geleneksel	-4978
ucusu	-4979
▁eval	-4980
▁kalı	-4981
▁team	-4982
▁Deniz	-4983
▁Karad	-4984
▁individ	-4985
▁operation	-4986
▁interested	-4987
lip	-4988
▁ka	-4989
▁Ön	-4990
▁Kit	-4991
ental	-4992
▁Pers	-4993
▁oğlu	-4994
plicit	-4995
▁haber	-4996
▁ileri	-4997
▁interesting	-4998
za	-4999
dem	-5000
Would	-5001
▁engel	-5002
htemelen	-5003
OM	-5004
▁Aş	-5005
▁af	-5006
ards	-5007
Benim	-5008
lardı	-5009
point	-5010
▁bize	-5011
▁heyk	-5012
▁demir	-5013
▁invol	-5014
▁koşul	-5015
alarına	-5016
▁taking	-5017
▁ölçüde	-5018
▁trouble	-5019
era	-5020
SCII	-5021
valid	-5022
▁item	-5023
▁Bizans	-5024
box	-5025
ony	-5026
ekiz	-5027
incip	-5028
▁ateş	-5029
leşmiş	-5030
▁canlı	-5031
▁sister	-5032
iyel	-5033
wards	-5034
▁Türkç	-5035
▁theory	-5036
IO	-5037
ills	-5038
isin	-5039
arist	-5040
▁alış	-5041
▁debug	-5042
IX	-5043
ülü	-5044
▁vur	-5045
▁send	-5046
▁basic	-5047
▁kurum	-5048
▁doktor	-5049
▁engine	-5050
▁geçmiş	-5051
▁içerir	-5052
▁yabancı	-5053
▁üzerindeki	-5054
gul	-5055
ante	-5056
Config	-5057
▁atmos	-5058
▁quick	-5059
ağa	-5060
coun	-5061
▁Yön	-5062
▁zam	-5063
lında	-5064
▁sona	-5065
▁yana	-5066
object	-5067
▁stack	-5068
▁extension	-5069
anlı	-5070
ersiz	-5071
▁deal	-5072
▁Linux	-5073
masında	-5074
fri	-5075
ior	-5076
ites	-5077
▁Int	-5078
ansız	-5079
config	-5080
▁listen	-5081
▁Unicode	-5082
▁sürekli	-5083
▁waiting	-5084
▁İb	-5085
▁hep	-5086
▁Brez	-5087
▁işgal	-5088
▁katkı	-5089
ilerinin	-5090
▁William	-5091
▁Eng	-5092
▁bound	-5093
▁Milletler	-5094
mal	-5095
▁||	-5096
▁fun	-5097
▁Halk	-5098
▁deri	-5099
▁prote	-5100
▁binary	-5101
Name	-5102
▁hig	-5103
▁azal	-5104
▁coff	-5105
ilosoph	-5106
▁itibarıyla	-5107
enek	-5108
pack	-5109
uses	-5110
active	-5111
▁turned	-5112
▁başlayan	-5113
▁üzerinden	-5114
Ger	-5115
▁Tim	-5116
▁uns	-5117
iktaş	-5118
▁close	-5119
▁contr	-5120
▁direk	-5121
▁automat	-5122
▁çalışan	-5123
▁described	-5124
Bur	-5125
eff	-5126
mızı	-5127
▁korum	-5128
▁parti	-5129
▁Müzesi	-5130
▁Atatürk	-5131
▁bilimsel	-5132
▁yönetmen	-5133
fort	-5134
year	-5135
▁Rum	-5136
ering	-5137
▁yarı	-5138
▁öğle	-5139
▁coğraf	-5140
▁respons	-5141
▁age	-5142
ilerek	-5143
▁iddia	-5144
▁accept	-5145
▁Se	-5146
lıca	-5147
ndan	-5148
▁giy	-5149
lığın	-5150
▁arch	-5151
▁Ermen	-5152
Unicode	-5153
▁Gaz	-5154
▁yum	-5155
▁uzay	-5156
▁günümüzde	-5157
Sen	-5158
lue	-5159
inler	-5160
▁Topl	-5161
▁gets	-5162
▁swim	-5163
▁geçti	-5164
▁yapar	-5165
▁üçüncü	-5166
Pr	-5167
mod	-5168
üphan	-5169
▁arac	-5170
▁news	-5171
artment	-5172
▁süt	-5173
ukarı	-5174
▁basın	-5175
▁color	-5176
TH	-5177
evi	-5178
Path	-5179
▁Dağ	-5180
▁fix	-5181
▁hor	-5182
▁Trab	-5183
aşık	-5184
▁box	-5185
▁diy	-5186
eriod	-5187
▁port	-5188
▁Antik	-5189
▁birth	-5190
▁yoksa	-5191
▁foreign	-5192
▁kişinin	-5193
▁members	-5194
kem	-5195
Test	-5196
rain	-5197
▁Dar	-5198
▁Gür	-5199
▁ağaç	-5200
ılarak	-5201
▁enjoy	-5202
▁ortam	-5203
▁yürüt	-5204
Sanırım	-5205
▁kapsam	-5206
▁kilomet	-5207
PY	-5208
bor	-5209
gers	-5210
▁---	-5211
lient	-5212
▁basit	-5213
▁kapat	-5214
▁techn	-5215
▁İzmir	-5216
▁filozof	-5217
ping	-5218
▁Sır	-5219
▁low	-5220
imate	-5221
▁catch	-5222
▁whose	-5223
▁convers	-5224
▁gösteren	-5225
more	-5226
Value	-5227
▁pain	-5228
ensive	-5229
undaki	-5230
▁akşam	-5231
▁kesim	-5232
▁coffee	-5233
▁nerede	-5234
▁popüler	-5235
▁standart	-5236
sy	-5237
Onu	-5238
afe	-5239
▁Ef	-5240
▁ways	-5241
▁yerde	-5242
▁errors	-5243
▁removed	-5244
Gün	-5245
biy	-5246
ahtar	-5247
▁sense	-5248
▁yavaş	-5249
▁etmeye	-5250
▁finished	-5251
▁resources	-5252
▁No	-5253
▁tük	-5254
erkes	-5255
▁hedef	-5256
▁limit	-5257
lanması	-5258
ospital	-5259
▁asıllı	-5260
▁gelecek	-5261
▁explicit	-5262
dil	-5263
▁dağı	-5264
▁forg	-5265
▁poor	-5266
▁Roman	-5267
▁ister	-5268
▁handle	-5269
▁Hindistan	-5270
eti	-5271
▁bilmiyor	-5272
And	-5273
abl	-5274
eba	-5275
isik	-5276
lege	-5277
▁astr	-5278
▁suit	-5279
▁annot	-5280
viç	-5281
▁Eğ	-5282
ısız	-5283
▁Dec	-5284
▁malz	-5285
upport	-5286
▁veren	-5287
▁birleş	-5288
▁Am	-5289
▁Eğer	-5290
▁phone	-5291
▁market	-5292
▁üniversit	-5293
gry	-5294
▁|-	-5295
abled	-5296
▁Unix	-5297
▁gider	-5298
Te	-5299
New	-5300
▁Sil	-5301
Inter	-5302
▁algor	-5303
▁milyar	-5304
▁communic	-5305
▁relative	-5306
----------+	-5307
▁completely	-5308
▁experience	-5309
▁q	-5310
▁ir	-5311
▁vat	-5312
▁cins	-5313
▁dinner	-5314
▁eyalet	-5315
ady	-5316
pol	-5317
manı	-5318
▁Mor	-5319
friend	-5320
ughter	-5321
Read	-5322
▁üyesi	-5323
▁referans	-5324
tual	-5325
vanı	-5326
▁Sin	-5327
▁Web	-5328
▁max	-5329
andom	-5330
yonel	-5331
▁copy	-5332
▁prefer	-5333
▁history	-5334
ban	-5335
brıs	-5336
doğu	-5337
eric	-5338
isel	-5339
urum	-5340
aster	-5341
umber	-5342
ternal	-5343
▁bring	-5344
▁inher	-5345
başkanı	-5346
▁regular	-5347
▁edilmektedir	-5348
▁Su	-5349
alif	-5350
part	-5351
ving	-5352
▁dom	-5353
▁hip	-5354
▁Mecl	-5355
▁chance	-5356
▁finish	-5357
▁afterno	-5358
ges	-5359
anto	-5360
ries	-5361
ükle	-5362
▁Pat	-5363
▁ken	-5364
Senin	-5365
antin	-5366
▁fast	-5367
▁behind	-5368
▁summer	-5369
▁çalışma	-5370
ured	-5371
ammed	-5372
▁File	-5373
▁sabit	-5374
▁declar	-5375
▁edilmiş	-5376
▁beginning	-5377
▁kullanıcı	-5378
IC	-5379
▁heav	-5380
▁kayıt	-5381
▁Müslüman	-5382
▁development	-5383
ape	-5384
sem	-5385
▁Ka	-5386
ırlar	-5387
atural	-5388
ecause	-5389
xy	-5390
var	-5391
▁İr	-5392
ileş	-5393
▁Bah	-5394
▁due	-5395
▁soğu	-5396
▁söylüyor	-5397
ılmaktadır	-5398
une	-5399
makta	-5400
▁Azer	-5401
▁pair	-5402
▁sıcaklık	-5403
eşil	-5404
▁Lit	-5405
▁Use	-5406
▁Open	-5407
▁comb	-5408
▁risk	-5409
▁ışık	-5410
▁Böyle	-5411
▁paper	-5412
▁afternoon	-5413
loy	-5414
▁IP	-5415
Your	-5416
iyah	-5417
nden	-5418
▁Bat	-5419
▁Ken	-5420
▁lay	-5421
Onlar	-5422
▁beyaz	-5423
▁civar	-5424
mesiyle	-5425
▁versions	-5426
▁Bo	-5427
Line	-5428
enüz	-5429
▁mit	-5430
▁sar	-5431
onomi	-5432
quest	-5433
urses	-5434
ground	-5435
undred	-5436
▁women	-5437
▁street	-5438
▁davranış	-5439
oad	-5440
▁Dön	-5441
▁Kil	-5442
othes	-5443
▁meas	-5444
▁rast	-5445
Module	-5446
▁rahat	-5447
▁video	-5448
tribute	-5449
▁target	-5450
▁varsay	-5451
▁Sovyetler	-5452
▁oluşturul	-5453
Gen	-5454
kur	-5455
rek	-5456
▁perf	-5457
▁tale	-5458
▁task	-5459
ündeki	-5460
landalı	-5461
▁content	-5462
▁şampiyon	-5463
▁imparator	-5464
▁insanların	-5465
▁düşünüyorum	-5466
enti	-5467
▁six	-5468
▁opin	-5469
▁trip	-5470
baycan	-5471
▁dream	-5472
▁etnik	-5473
▁items	-5474
▁Berlin	-5475
▁enerji	-5476
▁fields	-5477
▁pretty	-5478
▁yörüng	-5479
▁organiz	-5480
▁shouldn	-5481
▁Dr	-5482
▁giz	-5483
▁vak	-5484
▁fazl	-5485
▁ölen	-5486
though	-5487
▁entry	-5488
▁iklim	-5489
▁studi	-5490
▁closed	-5491
▁edebiyat	-5492
lies	-5493
link	-5494
▁nor	-5495
▁land	-5496
▁Metro	-5497
▁döndür	-5498
masından	-5499
▁allowed	-5500
▁configuration	-5501
▁documentation	-5502
FA	-5503
▁Ort	-5504
▁ill	-5505
chron	-5506
▁hücr	-5507
▁kitab	-5508
▁etkisi	-5509
▁sometimes	-5510
--------------+	-5511
▁##	-5512
Even	-5513
▁Van	-5514
alara	-5515
▁moun	-5516
▁mücade	-5517
▁opened	-5518
▁additional	-5519
omes	-5520
▁etc	-5521
arken	-5522
icine	-5523
theta	-5524
▁dead	-5525
▁creating	-5526
++	-5527
List	-5528
ranç	-5529
▁Kong	-5530
▁kart	-5531
▁yurt	-5532
outine	-5533
▁indir	-5534
▁sayılar	-5535
▁Sanat	-5536
▁saying	-5537
▁saldırı	-5538
▁öğretmen	-5539
TR	-5540
rail	-5541
unlu	-5542
▁aren	-5543
▁crit	-5544
▁denk	-5545
▁harc	-5546
▁hands	-5547
▁basket	-5548
▁global	-5549
▁doğrudan	-5550
▁messages	-5551
▁"_	-5552
▁metal	-5553
abilecek	-5554
▁yoluyla	-5555
▁appropri	-5556
▁kullanarak	-5557
▁Mo	-5558
▁hol	-5559
▁HTTP	-5560
▁mekt	-5561
▁demokr	-5562
▁points	-5563
▁Console	-5564
▁görülür	-5565
▁warning	-5566
▁American	-5567
▁constructor	-5568
Son	-5569
▁vo	-5570
edim	-5571
▁But	-5572
▁spend	-5573
aff	-5574
comp	-5575
▁obj	-5576
lıyor	-5577
▁yere	-5578
▁array	-5579
▁force	-5580
▁lives	-5581
▁complete	-5582
ones	-5583
ples	-5584
▁ham	-5585
arrow	-5586
types	-5587
▁keys	-5588
▁arası	-5589
▁olmuş	-5590
▁press	-5591
▁ayında	-5592
▁recomm	-5593
▁ülkede	-5594
▁durumda	-5595
▁sanatçısı	-5596
▁situation	-5597
apı	-5598
dle	-5599
▁açtı	-5600
▁dipl	-5601
▁kamp	-5602
▁türe	-5603
▁unit	-5604
▁count	-5605
▁güneş	-5606
▁offer	-5607
▁oranı	-5608
▁önder	-5609
▁Kültür	-5610
▁sözcük	-5611
▁software	-5612
▁relations	-5613
SD	-5614
iri	-5615
▁Mad	-5616
▁ran	-5617
board	-5618
▁fell	-5619
▁çocu	-5620
langıç	-5621
▁sabah	-5622
▁treat	-5623
▁şehri	-5624
▁dönemi	-5625
▁threads	-5626
ED	-5627
los	-5628
ung	-5629
▁"(	-5630
vert	-5631
▁Karadeniz	-5632
▁Yunanistan	-5633
So	-5634
▁Plat	-5635
▁akıl	-5636
method	-5637
▁bizim	-5638
▁soğuk	-5639
IL	-5640
Res	-5641
▁kı	-5642
▁neh	-5643
iding	-5644
▁Jack	-5645
▁derin	-5646
ediğini	-5647
▁Türkçe	-5648
▁ilgilen	-5649
ua	-5650
▁Gö	-5651
ısal	-5652
▁Ear	-5653
apped	-5654
taydı	-5655
▁date	-5656
▁Tanrı	-5657
▁disco	-5658
▁Ulusal	-5659
▁millet	-5660
diye	-5661
▁Kul	-5662
▁abs	-5663
abase	-5664
▁anti	-5665
▁rock	-5666
▁Kıbrıs	-5667
▁ederek	-5668
▁sembol	-5669
▁gösterm	-5670
▁serbest	-5671
▁bölgesinde	-5672
▁ism	-5673
▁bölün	-5674
▁tanrı	-5675
▁terms	-5676
acaktır	-5677
▁symbol	-5678
ayısıyla	-5679
▁Beşiktaş	-5680
abileceğini	-5681
Add	-5682
ola	-5683
▁Mek	-5684
▁Yaz	-5685
▁hon	-5686
▁mir	-5687
▁Dağı	-5688
▁note	-5689
▁ideas	-5690
▁yoktu	-5691
▁forget	-5692
▁hundred	-5693
▁setting	-5694
▁immediately	-5695
andaş	-5696
▁bomb	-5697
▁rules	-5698
▁events	-5699
▁belediye	-5700
see	-5701
itor	-5702
üstü	-5703
▁alloc	-5704
▁İnsan	-5705
▁further	-5706
fd	-5707
kw	-5708
olf	-5709
pit	-5710
▁Sm	-5711
odes	-5712
▁cüm	-5713
lerce	-5714
▁expl	-5715
Sadece	-5716
atures	-5717
▁besteci	-5718
▁olacağını	-5719
düm	-5720
arın	-5721
ogle	-5722
▁via	-5723
▁Paul	-5724
▁mutf	-5725
forman	-5726
▁favor	-5727
▁çevre	-5728
▁Kuvvet	-5729
▁değilim	-5730
▁restaur	-5731
▁hospital	-5732
BM	-5733
Sh	-5734
Int	-5735
__(	-5736
▁Fer	-5737
▁sok	-5738
liğin	-5739
▁mecl	-5740
▁adamı	-5741
▁akadem	-5742
▁danger	-5743
▁signal	-5744
▁başında	-5745
▁biliyorum	-5746
dis	-5747
ids	-5748
uyr	-5749
▁ah	-5750
▁Gök	-5751
▁cul	-5752
mayan	-5753
▁Kore	-5754
▁area	-5755
▁iken	-5756
▁kral	-5757
▁sand	-5758
▁tavs	-5759
▁şehr	-5760
String	-5761
▁addition	-5762
▁çoğunlukla	-5763
fab	-5764
▁***	-5765
▁Hen	-5766
resmi	-5767
▁Kons	-5768
▁dele	-5769
▁sche	-5770
lenmiş	-5771
▁recent	-5772
üny	-5773
▁Az	-5774
alam	-5775
attr	-5776
eople	-5777
ladığı	-5778
▁motor	-5779
▁Örnek	-5780
context	-5781
▁Akdeniz	-5782
▁profesyonel	-5783
İl	-5784
ayla	-5785
▁eğit	-5786
diğini	-5787
▁Bilim	-5788
▁etmiş	-5789
SSL	-5790
▁poz	-5791
▁Mark	-5792
▁died	-5793
▁belli	-5794
▁kurdu	-5795
▁başlar	-5796
▁deprem	-5797
Ra	-5798
Se	-5799
Pol	-5800
adi	-5801
eyn	-5802
ski	-5803
neği	-5804
▁ikt	-5805
▁ters	-5806
▁altbölüm	-5807
Def	-5808
▁host	-5809
ümüzde	-5810
▁World	-5811
▁piyas	-5812
▁simply	-5813
)".	-5814
sak	-5815
▁::	-5816
idge	-5817
raid	-5818
▁Muhammed	-5819
▁associated	-5820
▁muhtemelen	-5821
▁automatically	-5822
üman	-5823
▁çab	-5824
ption	-5825
ırken	-5826
dığını	-5827
▁succeed	-5828
▁underlying	-5829
olik	-5830
▁George	-5831
▁görmek	-5832
▁başarılı	-5833
▁existing	-5834
▁Avustralya	-5835
uzu	-5836
▁Lig	-5837
▁Yak	-5838
ivate	-5839
▁Buna	-5840
▁image	-5841
▁science	-5842
▁negative	-5843
ba	-5844
Bunu	-5845
oper	-5846
Since	-5847
mıştı	-5848
▁ismi	-5849
▁mechan	-5850
SY	-5851
▁III	-5852
▁sus	-5853
▁shop	-5854
▁şimdi	-5855
▁Mehmet	-5856
▁mineral	-5857
▁bilmiyorum	-5858
enn	-5859
yer	-5860
▁Ol	-5861
▁İk	-5862
▁Sağ	-5863
▁yiy	-5864
itude	-5865
▁draw	-5866
Ayrıca	-5867
atoeba	-5868
▁isimli	-5869
▁However	-5870
▁supposed	-5871
▁mevcuttur	-5872
CT	-5873
elt	-5874
url	-5875
ense	-5876
otik	-5877
▁ple	-5878
istic	-5879
yasal	-5880
ındır	-5881
▁Portekiz	-5882
▁mountain	-5883
▁exper	-5884
▁period	-5885
▁princip	-5886
▁sınıflandır	-5887
-------------+	-5888
ze	-5889
geç	-5890
idi	-5891
▁UT	-5892
loat	-5893
▁Plan	-5894
▁tools	-5895
▁askeri	-5896
▁heykel	-5897
▁America	-5898
▁literal	-5899
▁oluşturan	-5900
bert	-5901
▁Kor	-5902
▁Sah	-5903
▁kıt	-5904
▁otom	-5905
▁James	-5906
▁lived	-5907
▁compar	-5908
▁{{	-5909
Daha	-5910
cape	-5911
▁Gel	-5912
▁şart	-5913
▁bazen	-5914
▁carry	-5915
▁account	-5916
▁forward	-5917
▁examples	-5918
▁Kol	-5919
maşık	-5920
▁Cami	-5921
▁İsviç	-5922
formance	-5923
▁serious	-5924
▁yapıldı	-5925
▁mathemat	-5926
case	-5927
iety	-5928
İnsan	-5929
▁None	-5930
▁afraid	-5931
▁askerî	-5932
--------+	-5933
▁Sc	-5934
burg	-5935
anlığı	-5936
▁ayrıl	-5937
mıyorum	-5938
▁önceki	-5939
ğe	-5940
cho	-5941
ansa	-5942
▁deg	-5943
▁vaz	-5944
▁terk	-5945
leyman	-5946
▁enerj	-5947
▁Burada	-5948
▁tasarım	-5949
▁distribut	-5950
▁özellikleri	-5951
km	-5952
pi	-5953
Dec	-5954
ify	-5955
ips	-5956
kiler	-5957
▁gone	-5958
▁hair	-5959
▁nice	-5960
▁tane	-5961
Parser	-5962
ografi	-5963
▁index	-5964
▁calcul	-5965
▁define	-5966
▁dollar	-5967
▁member	-5968
▁kültürel	-5969
▁connection	-5970
▁appropriate	-5971
HT	-5972
eydi	-5973
uncu	-5974
▁Mez	-5975
oking	-5976
▁foot	-5977
▁cross	-5978
▁Yüksek	-5979
▁mahalle	-5980
▁verdiği	-5981
▁particip	-5982
açık	-5983
istry	-5984
▁kalk	-5985
▁metre	-5986
▁nesne	-5987
▁shall	-5988
▁birini	-5989
▁anahtar	-5990
▁internal	-5991
üme	-5992
itle	-5993
▁Sam	-5994
▁hit	-5995
▁pil	-5996
place	-5997
▁spent	-5998
▁sonrası	-5999
Exception	-6000
▁planning	-6001
ats	-6002
▁Ham	-6003
▁sick	-6004
▁parts	-6005
▁taşıy	-6006
pek	-6007
▁She	-6008
▁perm	-6009
Thread	-6010
▁balık	-6011
▁flags	-6012
▁takip	-6013
▁taşım	-6014
▁yağmur	-6015
▁Britanya	-6016
▁başkenti	-6017
▁kullanımı	-6018
▁themselves	-6019
come	-6020
▁ruh	-6021
▁Main	-6022
▁dile	-6023
offset	-6024
▁artır	-6025
▁compat	-6026
▁yemeği	-6027
▁brought	-6028
▁Prot	-6029
▁imag	-6030
▁kept	-6031
▁road	-6032
▁white	-6033
▁recogn	-6034
▁biçimde	-6035
ayıf	-6036
ederal	-6037
▁pazar	-6038
quences	-6039
▁scient	-6040
▁syntax	-6041
▁failure	-6042
▁bakımından	-6043
UN	-6044
asi	-6045
ören	-6046
▁Art	-6047
▁Cem	-6048
▁squ	-6049
▁altın	-6050
▁tests	-6051
▁Europe	-6052
▁however	-6053
▁zamanında	-6054
del	-6055
ores	-6056
▁tim	-6057
anlık	-6058
diler	-6059
▁drop	-6060
▁black	-6061
▁sektör	-6062
▁yapılır	-6063
▁içindeki	-6064
▁topluluk	-6065
▁sınırları	-6066
▁sonrasında	-6067
ira	-6068
room	-6069
▁evalu	-6070
▁mutlu	-6071
▁speed	-6072
lenmesi	-6073
▁regard	-6074
▁popular	-6075
▁söylemek	-6076
kl	-6077
max	-6078
pet	-6079
adir	-6080
mada	-6081
▁Dep	-6082
mamış	-6083
▁absol	-6084
▁henüz	-6085
▁rapor	-6086
▁söyle	-6087
▁temiz	-6088
▁değeri	-6089
▁gördüğ	-6090
▁prevent	-6091
▁currently	-6092
▁sayesinde	-6093
Ac	-6094
hi	-6095
ena	-6096
oca	-6097
çık	-6098
atom	-6099
▁Muhar	-6100
▁paket	-6101
▁round	-6102
cy	-6103
fik	-6104
aged	-6105
enty	-6106
ynam	-6107
▁fet	-6108
undur	-6109
▁Russ	-6110
▁dark	-6111
▁felt	-6112
▁grad	-6113
▁sets	-6114
▁Ülke	-6115
▁grubu	-6116
▁ready	-6117
▁yaşan	-6118
elerinde	-6119
▁Merkezi	-6120
abilirsiniz	-6121
ney	-6122
rel	-6123
▁Cam	-6124
▁İst	-6125
▁root	-6126
▁gives	-6127
▁hakim	-6128
▁neigh	-6129
▁tanış	-6130
▁caught	-6131
▁effort	-6132
▁motion	-6133
▁parent	-6134
▁raises	-6135
larındaki	-6136
▁Krallığı	-6137
▁vatandaş	-6138
▁generator	-6139
▁bö	-6140
ties	-6141
ysis	-6142
▁Bud	-6143
▁Kaz	-6144
▁till	-6145
▁requires	-6146
▁exceptions	-6147
▁—	-6148
Kar	-6149
ris	-6150
liğe	-6151
ques	-6152
▁kür	-6153
▁gerekli	-6154
▁product	-6155
▁olmadığı	-6156
Jo	-6157
itik	-6158
tepe	-6159
▁şim	-6160
alığı	-6161
cılar	-6162
▁okum	-6163
▁pref	-6164
▁Suriye	-6165
Base	-6166
▁eve	-6167
▁pul	-6168
imini	-6169
mathb	-6170
verse	-6171
▁Robert	-6172
▁distance	-6173
▁Azerbaycan	-6174
▁istediğini	-6175
.,	-6176
RFC	-6177
hal	-6178
rich	-6179
▁sig	-6180
stein	-6181
▁adet	-6182
▁snow	-6183
liğine	-6184
▁amount	-6185
▁Tiyatro	-6186
▁machine	-6187
▁approach	-6188
iol	-6189
umn	-6190
▁Hak	-6191
▁cou	-6192
▁hus	-6193
leyic	-6194
leşme	-6195
Lütfen	-6196
▁strate	-6197
▁yapısı	-6198
abileceği	-6199
▁countries	-6200
▁sürümünden	-6201
osk	-6202
uan	-6203
ünist	-6204
▁True	-6205
alandı	-6206
icient	-6207
▁Parti	-6208
▁egemen	-6209
▁hisset	-6210
▁kitabı	-6211
▁yaşadı	-6212
ological	-6213
▁deprecated	-6214
run	-6215
acık	-6216
over	-6217
aries	-6218
▁That	-6219
▁akım	-6220
▁doub	-6221
harita	-6222
▁Nehri	-6223
▁tired	-6224
▁social	-6225
▁kişiler	-6226
▁Avusturya	-6227
▁kendisine	-6228
ING	-6229
irit	-6230
▁kem	-6231
▁hayal	-6232
▁liter	-6233
▁thous	-6234
▁worry	-6235
▁verildi	-6236
flag	-6237
tent	-6238
▁Ter	-6239
▁guy	-6240
▁por	-6241
▁sıf	-6242
▁anay	-6243
▁dini	-6244
▁third	-6245
ossible	-6246
▁Charles	-6247
▁explain	-6248
▁executed	-6249
]"	-6250
mut	-6251
▁Uy	-6252
abet	-6253
▁cid	-6254
▁lis	-6255
cinsel	-6256
▁yağış	-6257
▁finally	-6258
oud	-6259
▁('	-6260
▁ko	-6261
▁ta	-6262
▁Ass	-6263
▁Wil	-6264
▁buz	-6265
öndür	-6266
▁held	-6267
▁Abdül	-6268
▁broke	-6269
▁invest	-6270
İstanbul	-6271
▁değildi	-6272
lenmiştir	-6273
▁practice	-6274
['	-6275
bak	-6276
dam	-6277
daş	-6278
ker	-6279
▁dar	-6280
▁fab	-6281
▁ücr	-6282
ciler	-6283
▁total	-6284
▁konusu	-6285
▁bölgede	-6286
▁aracılığı	-6287
bat	-6288
▁GDP	-6289
▁Gre	-6290
▁Tat	-6291
▁gec	-6292
▁hap	-6293
idence	-6294
▁studying	-6295
▁çalıştır	-6296
▁birbirine	-6297
NO	-6298
▁!	-6299
Now	-6300
Who	-6301
eyin	-6302
▁Sun	-6303
▁Tüm	-6304
▁cur	-6305
econd	-6306
▁eriş	-6307
leyici	-6308
▁among	-6309
▁araba	-6310
▁donan	-6311
▁şehrin	-6312
▁kökenli	-6313
▁İspanya	-6314
But	-6315
▁cy	-6316
▁dö	-6317
▁Min	-6318
▁cop	-6319
▁que	-6320
imark	-6321
ğimiz	-6322
▁busy	-6323
▁aşırı	-6324
▁dress	-6325
▁yetiş	-6326
isiklet	-6327
▁Denizi	-6328
▁easily	-6329
▁günlük	-6330
▁defaults	-6331
▁restaurant	-6332
------------+	-6333
RL	-6334
veyn	-6335
▁Dil	-6336
▁End	-6337
Neden	-6338
miyor	-6339
▁hata	-6340
▁Earth	-6341
▁claim	-6342
peranto	-6343
▁ability	-6344
▁bilinir	-6345
aza	-6346
▁By	-6347
▁Kim	-6348
▁Yen	-6349
ırvat	-6350
▁slow	-6351
▁antik	-6352
▁lower	-6353
▁örgüt	-6354
------+	-6355
▁paylaş	-6356
▁vermek	-6357
▁yeterli	-6358
▁daughter	-6359
▁birleştir	-6360
▁>	-6361
cer	-6362
uff	-6363
sych	-6364
▁alg	-6365
▁göl	-6366
▁pen	-6367
▁İlç	-6368
▁Form	-6369
mitted	-6370
▁yasak	-6371
▁çatış	-6372
Returns	-6373
▁altına	-6374
▁onunla	-6375
tlaşması	-6376
▁anymore	-6377
▁natural	-6378
▁Süleyman	-6379
▁bazıları	-6380
▁bağlantı	-6381
▁execution	-6382
lier	-6383
▁Söz	-6384
lıdır	-6385
▁edin	-6386
▁prec	-6387
▁yedi	-6388
▁babası	-6389
▁Hollanda	-6390
▁edebilir	-6391
▁fiziksel	-6392
▁sağlamak	-6393
▁yetiştir	-6394
▁gerekiyor	-6395
Dep	-6396
aks	-6397
gun	-6398
lov	-6399
Sana	-6400
▁leg	-6401
▁İki	-6402
inese	-6403
▁asal	-6404
▁belg	-6405
▁buna	-6406
▁yeri	-6407
▁onların	-6408
ıf	-6409
▁".	-6410
soft	-6411
▁Sol	-6412
▁sap	-6413
lines	-6414
▁içine	-6415
▁logger	-6416
▁shared	-6417
▁improve	-6418
▁ilçesine	-6419
▁starting	-6420
▁representation	-6421
ıb	-6422
tic	-6423
batı	-6424
▁hab	-6425
▁tag	-6426
color	-6427
ember	-6428
ictor	-6429
▁penc	-6430
▁aktör	-6431
▁kısım	-6432
▁obser	-6433
▁derece	-6434
▁işletim	-6435
▁homework	-6436
▁karmaşık	-6437
Bel	-6438
Com	-6439
▁Let	-6440
▁atan	-6441
▁cell	-6442
▁fund	-6443
▁uyar	-6444
▁satır	-6445
▁Bulgar	-6446
▁author	-6447
▁clothes	-6448
▁purpose	-6449
▁sentences	-6450
EN	-6451
▁Cl	-6452
Bazı	-6453
ools	-6454
▁Ven	-6455
ınday	-6456
▁demon	-6457
▁Eğitim	-6458
▁native	-6459
▁Pl	-6460
rown	-6461
bilim	-6462
riter	-6463
▁bölümü	-6464
▁geomet	-6465
▁konser	-6466
▁Muhareb	-6467
▁Festival	-6468
▁callback	-6469
^{	-6470
▁Üç	-6471
iles	-6472
içek	-6473
▁Ada	-6474
▁hum	-6475
▁hyp	-6476
▁fish	-6477
Gerçek	-6478
▁Arist	-6479
▁occurr	-6480
▁unless	-6481
▁website	-6482
▁property	-6483
UTC	-6484
tılı	-6485
usal	-6486
▁mağ	-6487
beveyn	-6488
ustral	-6489
▁advan	-6490
▁email	-6491
▁glass	-6492
▁kuram	-6493
▁believ	-6494
▁etkilen	-6495
▁katıldı	-6496
▁received	-6497
LA	-6498
▁Ra	-6499
iğin	-6500
▁Ver	-6501
▁Yaş	-6502
indir	-6503
▁Gölü	-6504
▁birim	-6505
▁months	-6506
▁travel	-6507
▁quickly	-6508
▁gelmiştir	-6509
abc	-6510
std	-6511
▁sho	-6512
▁katı	-6513
▁processes	-6514
▁Ur	-6515
▁je	-6516
▁pages	-6517
▁yarar	-6518
elerine	-6519
▁bakter	-6520
▁integr	-6521
▁yaptır	-6522
▁evening	-6523
▁ihtiyaç	-6524
▁according	-6525
wo	-6526
band	-6527
lığa	-6528
▁uyum	-6529
▁numar	-6530
▁invalid	-6531
▁mapping	-6532
▁individual	-6533
^^	-6534
Dict	-6535
▁Çek	-6536
State	-6537
▁weak	-6538
ension	-6539
isidir	-6540
ission	-6541
▁=====	-6542
▁Trans	-6543
▁yılına	-6544
▁references	-6545
▁araştırmalar	-6546
pik	-6547
adiş	-6548
▁pan	-6549
Class	-6550
write	-6551
▁adım	-6552
▁dalg	-6553
istics	-6554
meleri	-6555
▁hastan	-6556
▁turtle	-6557
▁article	-6558
▁opinion	-6559
▁statements	-6560
do	-6561
▁Kup	-6562
veriş	-6563
▁edem	-6564
▁mail	-6565
▁Ahmet	-6566
▁eylem	-6567
▁relig	-6568
alimanı	-6569
▁halinde	-6570
▁yılları	-6571
abi	-6572
exp	-6573
aşır	-6574
ivil	-6575
▁fay	-6576
layarak	-6577
▁Demokr	-6578
▁Google	-6579
tributed	-6580
▁noktası	-6581
▁specify	-6582
▁attention	-6583
▁sahipliği	-6584
▁doğumlular	-6585
ael	-6586
abel	-6587
▁Kam	-6588
▁War	-6589
fully	-6590
▁audi	-6591
socket	-6592
▁Zaman	-6593
▁kütle	-6594
▁düşünc	-6595
▁herkes	-6596
▁hoşlan	-6597
▁secret	-6598
▁olmadan	-6599
▁runtime	-6600
▁database	-6601
▁performance	-6602
aft	-6603
Time	-6604
▁rüz	-6605
▁Olim	-6606
atever	-6607
▁alfab	-6608
▁media	-6609
▁piece	-6610
▁nature	-6611
▁stored	-6612
▁farklılık	-6613
dun	-6614
ezi	-6615
map	-6616
nis	-6617
omas	-6618
▁Hük	-6619
▁win	-6620
abilen	-6621
▁price	-6622
▁river	-6623
▁zayıf	-6624
▁malzem	-6625
▁İkinci	-6626
▁kaynağı	-6627
▁register	-6628
Ak	-6629
au	-6630
▁°	-6631
▁•	-6632
nan	-6633
imli	-6634
onse	-6635
▁gal	-6636
▁acqu	-6637
pendent	-6638
▁müziği	-6639
▁Univers	-6640
▁ilişkin	-6641
ValueError	-6642
hol	-6643
▁ku	-6644
apın	-6645
ring	-6646
▁Küt	-6647
▁Ülk	-6648
▁kurt	-6649
▁tanı	-6650
People	-6651
▁orada	-6652
▁sordu	-6653
▁arrived	-6654
▁yaşında	-6655
▁contents	-6656
▁sağlayan	-6657
▁yerleştir	-6658
▁ess	-6659
▁tıp	-6660
▁Şah	-6661
▁burn	-6662
▁gele	-6663
create	-6664
▁süren	-6665
▁etkileş	-6666
▁geçirdi	-6667
▁direktör	-6668
▁platforms	-6669
▁başlamıştır	-6670
▁programming	-6671
▁My	-6672
▁ic	-6673
Call	-6674
▁rev	-6675
gress	-6676
vanya	-6677
istler	-6678
kinter	-6679
▁Macar	-6680
▁higher	-6681
▁gazeteci	-6682
▁internet	-6683
▁education	-6684
▁interpret	-6685
▁relationship	-6686
ây	-6687
ima	-6688
▁Bl	-6689
kili	-6690
▁Mir	-6691
▁Şeh	-6692
refix	-6693
▁alanında	-6694
▁operator	-6695
▁kesinlikle	-6696
();	-6697
roz	-6698
▁vb	-6699
amik	-6700
cale	-6701
ello	-6702
gest	-6703
▁Dis	-6704
▁Erz	-6705
array	-6706
etrol	-6707
ullah	-6708
▁rema	-6709
▁rich	-6710
stract	-6711
▁worth	-6712
▁söyler	-6713
filename	-6714
▁tarihli	-6715
açıklaması	-6716
mu	-6717
Arg	-6718
köy	-6719
umer	-6720
ıntı	-6721
▁Kür	-6722
▁cih	-6723
iling	-6724
ğımız	-6725
▁ordu	-6726
▁prim	-6727
▁sert	-6728
assert	-6729
▁Bakan	-6730
▁filmi	-6731
▁yürüy	-6732
▁learned	-6733
▁bunların	-6734
liğinde	-6735
▁temper	-6736
▁basketbol	-6737
";	-6738
Hay	-6739
▁Def	-6740
▁Jos	-6741
ekkür	-6742
float	-6743
▁deep	-6744
▁onay	-6745
▁Özel	-6746
▁Kralı	-6747
▁deste	-6748
▁harit	-6749
▁olmay	-6750
▁dakika	-6751
▁dilleri	-6752
▁surprised	-6753
▁adlandırılan	-6754
SO	-6755
.**	-6756
▁Et	-6757
▁ört	-6758
▁dans	-6759
▁kara	-6760
▁Micro	-6761
▁hidro	-6762
▁tanıt	-6763
▁Ülkenin	-6764
▁aracılığıyla	-6765
▁kullanılabilir	-6766
EE	-6767
Sim	-6768
oll	-6769
lear	-6770
aches	-6771
etmen	-6772
irler	-6773
uring	-6774
▁defa	-6775
▁kans	-6776
▁sens	-6777
Script	-6778
adişah	-6779
▁drive	-6780
▁compon	-6781
▁eating	-6782
▁killed	-6783
▁yapmam	-6784
▁üyeleri	-6785
WriteLine	-6786
▁personal	-6787
▁araştırma	-6788
▁effective	-6789
va	-6790
Top	-6791
doc	-6792
oul	-6793
vey	-6794
▁NU	-6795
berg	-6796
lash	-6797
▁rob	-6798
▁Fran	-6799
▁Kızıl	-6800
▁kimse	-6801
▁older	-6802
ference	-6803
isinden	-6804
▁klasik	-6805
▁ignored	-6806
▁iletişim	-6807
zi	-6808
rom	-6809
macı	-6810
▁Mag	-6811
▁Mem	-6812
nüfus	-6813
tific	-6814
▁Oper	-6815
▁ball	-6816
▁Sosyal	-6817
▁Sistemi	-6818
▁bölgesi	-6819
▁kendine	-6820
phi	-6821
ued	-6822
vur	-6823
önü	-6824
örü	-6825
yeri	-6826
▁üye	-6827
mekte	-6828
▁aray	-6829
▁dict	-6830
▁kamu	-6831
▁komş	-6832
▁ones	-6833
return	-6834
▁moved	-6835
▁yerli	-6836
▁double	-6837
▁entire	-6838
▁includes	-6839
▁özelliği	-6840
▁applications	-6841
▁Now	-6842
▁foc	-6843
▁agre	-6844
▁Altın	-6845
▁korun	-6846
▁siyah	-6847
▁Object	-6848
▁policy	-6849
▁speech	-6850
▁sürede	-6851
▁girişim	-6852
ıldığında	-6853
▁Danimark	-6854
▁istasyon	-6855
▁Özellikle	-6856
ydı	-6857
▁Fat	-6858
▁Mes	-6859
▁ach	-6860
▁kış	-6861
▁evrim	-6862
▁geçiş	-6863
▁paint	-6864
▁piyan	-6865
▁solve	-6866
▁yarım	-6867
▁client	-6868
▁commit	-6869
▁öncesi	-6870
datetime	-6871
▁defines	-6872
▁happens	-6873
▁perfect	-6874
▁yaklaşım	-6875
▁Muharebesi	-6876
ala	-6877
ulur	-6878
▁eşi	-6879
atlar	-6880
asyncio	-6881
gisayar	-6882
▁Adaları	-6883
▁mücadele	-6884
▁impossible	-6885
dük	-6886
hem	-6887
lit	-6888
dusu	-6889
host	-6890
ingu	-6891
▁Mur	-6892
▁güc	-6893
▁hüc	-6894
müyor	-6895
▁born	-6896
▁site	-6897
▁çağr	-6898
cience	-6899
▁Müzik	-6900
▁ailes	-6901
▁ikisi	-6902
▁olmam	-6903
▁buraya	-6904
▁cinsel	-6905
▁conveni	-6906
▁dollars	-6907
▁telling	-6908
▁followed	-6909
▁başarısız	-6910
▁expensive	-6911
▁philosoph	-6912
gam	-6913
▁fi	-6914
iano	-6915
irin	-6916
tısı	-6917
Where	-6918
names	-6919
sanız	-6920
▁norm	-6921
▁wall	-6922
▁decor	-6923
▁prior	-6924
▁mantık	-6925
▁remain	-6926
▁weight	-6927
▁İsrail	-6928
▁tonight	-6929
▁speaking	-6930
loop	-6931
▁Bab	-6932
▁ens	-6933
▁han	-6934
▁lig	-6935
edeni	-6936
▁circ	-6937
▁esas	-6938
stance	-6939
▁David	-6940
▁endiş	-6941
▁modül	-6942
▁Yahudi	-6943
▁birden	-6944
▁pointer	-6945
erv	-6946
▁MS	-6947
▁ıs	-6948
akar	-6949
hash	-6950
sert	-6951
tesi	-6952
▁ang	-6953
▁tax	-6954
param	-6955
▁Barış	-6956
▁Fener	-6957
▁sorry	-6958
▁ederim	-6959
▁zamanı	-6960
▁şeyler	-6961
▁kırmızı	-6962
▁decision	-6963
▁aşağıdaki	-6964
ipe	-6965
rad	-6966
Yeni	-6967
▁Geç	-6968
▁Jul	-6969
▁piş	-6970
acing	-6971
ndeki	-6972
Döndür	-6973
▁aktiv	-6974
▁olsun	-6975
lediyesi	-6976
▁traffic	-6977
▁örneğin	-6978
▁Brezilya	-6979
▁callable	-6980
▁Birleşmiş	-6981
HE	-6982
ct	-6983
Bug	-6984
aly	-6985
fet	-6986
▁Mr	-6987
____	-6988
▁Bol	-6989
▁die	-6990
urity	-6991
using	-6992
▁ciddi	-6993
▁diren	-6994
▁earlier	-6995
▁mistake	-6996
▁birthday	-6997
▁explicitly	-6998
dağ	-6999
ekâ	-7000
orb	-7001
▁La	-7002
ileb	-7003
Could	-7004
▁Fars	-7005
▁sayf	-7006
▁uydu	-7007
mediğini	-7008
▁böylece	-7009
▁network	-7010
▁related	-7011
▁türleri	-7012
▁Topluluğu	-7013
▁karşılaştır	-7014
▁İbn	-7015
▁şun	-7016
izing	-7017
▁Type	-7018
▁cümle	-7019
▁yılda	-7020
acağımı	-7021
▁disapp	-7022
▁ölenler	-7023
İngilizce	-7024
▁medicine	-7025
OP	-7026
ny	-7027
▁Boğ	-7028
▁Log	-7029
▁Sab	-7030
▁diş	-7031
ified	-7032
▁Other	-7033
▁sekiz	-7034
▁yalan	-7035
akistan	-7036
▁takımı	-7037
▁intended	-7038
▁kütüphan	-7039
▁sahipleri	-7040
char	-7041
ibly	-7042
isar	-7043
▁Dol	-7044
▁Kut	-7045
esindeki	-7046
▁Chinese	-7047
▁nüfusun	-7048
▁gelişmiş	-7049
▁introduc	-7050
▁positive	-7051
▁toplantı	-7052
Döndürdüğü	-7053
▁Kuvvetleri	-7054
QL	-7055
▁Gü	-7056
▁Mu	-7057
John	-7058
onic	-7059
▁Fut	-7060
▁fine	-7061
▁Camii	-7062
▁hangi	-7063
▁sınıfı	-7064
▁kardeşi	-7065
▁yazdığı	-7066
▁yaşadığı	-7067
▁expressions	-7068
],	-7069
▁Me	-7070
conn	-7071
için	-7072
last	-7073
urch	-7074
lıklı	-7075
memiş	-7076
artesi	-7077
ibooks	-7078
▁ettir	-7079
▁garden	-7080
▁Böylece	-7081
▁effects	-7082
Log	-7083
▁blo	-7084
Gener	-7085
asing	-7086
cient	-7087
▁Note	-7088
▁Timur	-7089
▁wrote	-7090
lardaki	-7091
▁Return	-7092
▁otobüs	-7093
▁thinks	-7094
▁iterator	-7095
lanmaktadır	-7096
▁göstermektedir	-7097
try	-7098
ardo	-7099
mode	-7100
osed	-7101
ramı	-7102
▁dek	-7103
▁ikna	-7104
anları	-7105
▁Küçük	-7106
▁içeri	-7107
▁radyo	-7108
▁usage	-7109
ıyorsun	-7110
▁Modern	-7111
▁attack	-7112
▁couple	-7113
▁likely	-7114
▁tespit	-7115
▁Jackson	-7116
▁concern	-7117
elerinden	-7118
▁Antlaşması	-7119
▁management	-7120
Ev	-7121
oo	-7122
bre	-7123
ils	-7124
▁os	-7125
ager	-7126
ride	-7127
▁Din	-7128
▁Has	-7129
Somet	-7130
liliğ	-7131
▁Irak	-7132
bakanı	-7133
▁Latin	-7134
▁Nüfus	-7135
▁Smith	-7136
▁buldu	-7137
▁newsp	-7138
▁yazdı	-7139
▁etkili	-7140
▁famous	-7141
▁onları	-7142
▁transfer	-7143
▁ilişkiler	-7144
▁gelmektedir	-7145
*"	-7146
KE	-7147
▁Ku	-7148
▁ma	-7149
cent	-7150
hand	-7151
▁Alex	-7152
lediği	-7153
unvanı	-7154
ükleer	-7155
▁Inter	-7156
▁fight	-7157
▁School	-7158
▁employ	-7159
▁ground	-7160
▁önünde	-7161
▁düşünül	-7162
▁private	-7163
▁materials	-7164
LS	-7165
())	-7166
expr	-7167
▁Pas	-7168
▁Pre	-7169
▁Sub	-7170
▁XML	-7171
▁tır	-7172
ottom	-7173
▁Some	-7174
▁bahç	-7175
lament	-7176
▁Haned	-7177
▁hatta	-7178
▁yakal	-7179
▁Fakült	-7180
▁center	-7181
▁nedeni	-7182
▁location	-7183
");	-7184
▁*/	-7185
dies	-7186
▁jud	-7187
▁pas	-7188
▁graph	-7189
▁kalab	-7190
▁links	-7191
▁plane	-7192
▁actual	-7193
▁exists	-7194
▁seconds	-7195
▁sitting	-7196
▁verilir	-7197
▁zorunday	-7198
▁determine	-7199
sır	-7200
▁Rec	-7201
▁Yüz	-7202
echni	-7203
▁gram	-7204
▁Fakat	-7205
▁arbit	-7206
▁makin	-7207
▁alanda	-7208
▁tehlik	-7209
▁filmler	-7210
▁yılından	-7211
▁çalışmak	-7212
▁Festivali	-7213
isf	-7214
▁UN	-7215
▁leh	-7216
aking	-7217
▁HTML	-7218
▁Jean	-7219
▁mass	-7220
▁olma	-7221
▁rule	-7222
▁tren	-7223
▁uzan	-7224
isiyle	-7225
Context	-7226
▁Elektr	-7227
▁ticari	-7228
▁ulaşım	-7229
▁produce	-7230
yüzölçümü	-7231
▁Learning	-7232
▁milletve	-7233
▁Ermenistan	-7234
▁collection	-7235
~~~~~~~~~~~~~~~~	-7236
Le	-7237
ION	-7238
ald	-7239
rimi	-7240
▁Stu	-7241
▁ded	-7242
ander	-7243
▁Rich	-7244
allesi	-7245
▁float	-7246
▁Kanada	-7247
▁nereye	-7248
▁consist	-7249
▁Internet	-7250
▁included	-7251
▁yönetmeni	-7252
yd	-7253
Mar	-7254
Rec	-7255
▁"<	-7256
oted	-7257
▁IPv	-7258
▁dey	-7259
larca	-7260
▁bind	-7261
▁wind	-7262
▁cevap	-7263
▁Hırvat	-7264
▁birinci	-7265
▁college	-7266
▁insanları	-7267
▁sanmıyorum	-7268
El	-7269
go	-7270
sl	-7271
İs	-7272
▁:*	-7273
cial	-7274
▁Kurt	-7275
▁shell	-7276
ileceğini	-7277
▁mühendisliği	-7278
ho	-7279
xml	-7280
Form	-7281
alım	-7282
iyer	-7283
just	-7284
oken	-7285
close	-7286
yanus	-7287
▁Hast	-7288
▁coll	-7289
▁Olimp	-7290
▁align	-7291
▁çözüm	-7292
Because	-7293
▁figure	-7294
Man	-7295
ubu	-7296
ıydı	-7297
▁Sem	-7298
▁kıl	-7299
▁van	-7300
▁chem	-7301
▁Allah	-7302
▁götür	-7303
▁hotel	-7304
▁reform	-7305
▁worked	-7306
▁feeling	-7307
▁patient	-7308
▁barındır	-7309
▁increase	-7310
▁separate	-7311
BU	-7312
May	-7313
Wik	-7314
alış	-7315
▁Ang	-7316
▁Exp	-7317
▁RNA	-7318
▁bot	-7319
▁enf	-7320
▁şüp	-7321
▁susp	-7322
▁trad	-7323
▁fiyat	-7324
▁thumb	-7325
▁kimyasal	-7326
OL	-7327
cor	-7328
altı	-7329
elta	-7330
mara	-7331
▁One	-7332
▁ful	-7333
bahçe	-7334
▁angry	-7335
▁bozuk	-7336
▁kralı	-7337
However	-7338
▁Mehmed	-7339
encoding	-7340
▁Belediye	-7341
▁generally	-7342
yu	-7343
opt	-7344
vik	-7345
ella	-7346
▁Abd	-7347
async	-7348
index	-7349
▁exit	-7350
▁kuyr	-7351
▁lose	-7352
▁suff	-7353
▁shows	-7354
▁yüzde	-7355
undadır	-7356
▁Coğraf	-7357
▁bilmek	-7358
▁petrol	-7359
▁dünyada	-7360
▁misiniz	-7361
▁projects	-7362
▁implemented	-7363
▁Cumhurbaşkanı	-7364
hat	-7365
ümüş	-7366
▁odak	-7367
▁repe	-7368
esents	-7369
▁dolar	-7370
▁evlen	-7371
lements	-7372
▁curses	-7373
▁prepar	-7374
▁yıldır	-7375
▁gerektir	-7376
▁yapılmış	-7377
▁sebebiyle	-7378
▁yaptığını	-7379
Dün	-7380
ürn	-7381
▁OS	-7382
▁ez	-7383
osta	-7384
▁Cez	-7385
▁Rem	-7386
obody	-7387
▁Mich	-7388
▁ilgi	-7389
ration	-7390
▁Maked	-7391
▁giden	-7392
kuruluş	-7393
▁durumu	-7394
▁prefix	-7395
▁husband	-7396
▁seyahat	-7397
▁kurulmuştur	-7398
▁understanding	-7399
▁"%	-7400
araj	-7401
▁fit	-7402
▁fing	-7403
▁stra	-7404
prefix	-7405
▁Karab	-7406
▁Patch	-7407
▁demek	-7408
Amerika	-7409
Fransız	-7410
▁bayrak	-7411
▁dipnot	-7412
▁walked	-7413
▁upright	-7414
PyUnicode	-7415
PR	-7416
rt	-7417
irt	-7418
Just	-7419
yolu	-7420
▁Nik	-7421
▁Tür	-7422
▁cep	-7423
▁fif	-7424
erson	-7425
▁safe	-7426
▁bitki	-7427
▁karbon	-7428
▁konumu	-7429
▁yerini	-7430
chronous	-7431
▁Project	-7432
▁açıklam	-7433
▁denklem	-7434
▁features	-7435
▁Esperanto	-7436
▁çalışmaları	-7437
db	-7438
▁*,	-7439
▁Arab	-7440
▁seven	-7441
▁tedav	-7442
▁played	-7443
▁requir	-7444
function	-7445
▁strange	-7446
Bil	-7447
PPP	-7448
nes	-7449
brah	-7450
ikal	-7451
itif	-7452
onun	-7453
▁Mey	-7454
▁vüc	-7455
▁ışı	-7456
▁Hava	-7457
▁ilaç	-7458
▁kims	-7459
▁ASCII	-7460
▁France	-7461
▁failed	-7462
▁teslim	-7463
▁aslında	-7464
▁million	-7465
▁require	-7466
▁düşündüğ	-7467
Key	-7468
Çok	-7469
▁sö	-7470
road	-7471
▁Est	-7472
▁vac	-7473
▁çer	-7474
▁Kadın	-7475
▁Yahud	-7476
▁başta	-7477
▁iktid	-7478
▁likes	-7479
▁metin	-7480
▁Bunlar	-7481
▁başvur	-7482
▁compet	-7483
▁durdur	-7484
▁kurtar	-7485
▁middle	-7486
▁vazgeç	-7487
▁tavsiye	-7488
▁teorisi	-7489
lanabilir	-7490
▁eşcinsel	-7491
▁yönetimi	-7492
Ab	-7493
isa	-7494
nam	-7495
alog	-7496
kray	-7497
▁Hey	-7498
▁rep	-7499
▁von	-7500
▁derg	-7501
▁Stand	-7502
▁kanun	-7503
▁uzman	-7504
▁easier	-7505
▁sonsuz	-7506
▁başlıca	-7507
▁listesi	-7508
▁passing	-7509
▁solution	-7510
▁etrafında	-7511
▁yıllarında	-7512
ball	-7513
upid	-7514
const	-7515
ıldız	-7516
▁supp	-7517
▁uçuş	-7518
change	-7519
▁users	-7520
message	-7521
▁antlaş	-7522
position	-7523
▁ayrıldı	-7524
▁greater	-7525
▁mistakes	-7526
AS	-7527
Ap	-7528
Err	-7529
uss	-7530
lank	-7531
lude	-7532
▁Yar	-7533
▁eye	-7534
▁swe	-7535
▁Çok	-7536
align	-7537
ğinin	-7538
▁guar	-7539
▁okun	-7540
▁yolc	-7541
ections	-7542
▁advice	-7543
▁screen	-7544
▁verilm	-7545
oğunluğu	-7546
▁kurucusu	-7547
▁programs	-7548
Long	-7549
phone	-7550
▁aday	-7551
lıklar	-7552
portun	-7553
▁agree	-7554
▁alias	-7555
▁hızla	-7556
▁molek	-7557
▁giving	-7558
▁python	-7559
▁öğleden	-7560
▁handling	-7561
*)	-7562
->	-7563
CD	-7564
eno	-7565
Most	-7566
tors	-7567
▁HDI	-7568
▁NAT	-7569
▁Rad	-7570
annot	-7571
cribe	-7572
lanma	-7573
▁etme	-7574
▁hasn	-7575
▁floor	-7576
▁token	-7577
address	-7578
▁yapmaya	-7579
▁university	-7580
=[	-7581
ida	-7582
rid	-7583
engi	-7584
okol	-7585
orks	-7586
▁disk	-7587
▁okuy	-7588
▁karış	-7589
elerden	-7590
maktaydı	-7591
▁öğrenim	-7592
▁ihtiyacı	-7593
▁uygulama	-7594
ku	-7595
Öz	-7596
IME	-7597
jen	-7598
▁Ma	-7599
▁hur	-7600
▁imk	-7601
▁çök	-7602
tered	-7603
▁bekl	-7604
▁lack	-7605
▁barış	-7606
▁optim	-7607
▁alınan	-7608
▁remove	-7609
▁restor	-7610
▁safety	-7611
▁bıraktı	-7612
▁olduğum	-7613
▁material	-7614
CP	-7615
dip	-7616
ois	-7617
raz	-7618
ubl	-7619
▁ib	-7620
Spec	-7621
çisi	-7622
▁Far	-7623
▁Rom	-7624
layın	-7625
otion	-7626
ssize	-7627
▁sell	-7628
▁subs	-7629
▁günde	-7630
▁mektup	-7631
▁sözcüğ	-7632
▁yapımı	-7633
amıyorum	-7634
▁limited	-7635
▁service	-7636
▁Wikibooks	-7637
▁sn	-7638
ısıt	-7639
▁pap	-7640
tuple	-7641
▁rele	-7642
server	-7643
ısıyla	-7644
▁follows	-7645
▁protein	-7646
▁bisiklet	-7647
▁edilmesi	-7648
---------------+	-7649
Load	-7650
▁Sey	-7651
▁dri	-7652
Büyük	-7653
ordum	-7654
▁hash	-7655
▁viol	-7656
layıcı	-7657
▁inanç	-7658
▁reach	-7659
▁uzaklık	-7660
▁Şampiyon	-7661
▁arbitrary	-7662
▁dangerous	-7663
▁politikacı	-7664
IG	-7665
Öğr	-7666
THON	-7667
haps	-7668
ılış	-7669
▁Aug	-7670
arily	-7671
clock	-7672
mişti	-7673
▁heavy	-7674
▁lists	-7675
▁forgot	-7676
▁stupid	-7677
▁stopped	-7678
▁continue	-7679
▁activities	-7680
Yap	-7681
öğr	-7682
Text	-7683
dünç	-7684
oday	-7685
▁May	-7686
▁aud	-7687
▁row	-7688
▁wis	-7689
cious	-7690
▁Edeb	-7691
▁Kara	-7692
▁King	-7693
▁Stal	-7694
▁fear	-7695
▁köpr	-7696
▁uçak	-7697
▁istek	-7698
▁kenar	-7699
▁weeks	-7700
▁alındı	-7701
▁attemp	-7702
▁termin	-7703
▁öğrenci	-7704
▁watching	-7705
▁Günümüzde	-7706
mt	-7707
İş	-7708
rac	-7709
▁['	-7710
dedir	-7711
iment	-7712
▁Anay	-7713
verage	-7714
▁Yayın	-7715
▁exerc	-7716
▁İskoç	-7717
▁karşın	-7718
▁keşfed	-7719
▁reddet	-7720
▁depends	-7721
Amerikalı	-7722
▁kullanır	-7723
▁genelinde	-7724
▁kilometre	-7725
▁Havalimanı	-7726
============	-7727
Yaş	-7728
att	-7729
car	-7730
lub	-7731
Here	-7732
itar	-7733
lılar	-7734
ropol	-7735
▁wood	-7736
▁ışın	-7737
-----+	-7738
uyorum	-7739
▁nitel	-7740
version	-7741
▁Tarihi	-7742
▁Thomas	-7743
▁gelene	-7744
▁applied	-7745
▁leaving	-7746
Gerçekten	-7747
alarından	-7748
▁physical	-7749
▁teknoloj	-7750
ng	-7751
ela	-7752
unus	-7753
▁Cor	-7754
▁Nur	-7755
eceği	-7756
▁NATO	-7757
▁attr	-7758
alılar	-7759
▁Linda	-7760
▁apply	-7761
▁track	-7762
▁çıkış	-7763
▁şöyle	-7764
Warning	-7765
▁Ermeni	-7766
▁sanayi	-7767
▁becomes	-7768
▁iterable	-7769
▁straight	-7770
▁teşekkür	-7771
▁Microsoft	-7772
▁instructions	-7773
'),	-7774
ati	-7775
kas	-7776
▁uc	-7777
ille	-7778
▁Hel	-7779
▁Sav	-7780
▁bal	-7781
▁işi	-7782
▁mix	-7783
▁rot	-7784
cilik	-7785
▁Belç	-7786
▁Spor	-7787
▁etki	-7788
PyType	-7789
iverse	-7790
▁extra	-7791
malıdır	-7792
▁başarı	-7793
▁devrim	-7794
▁ilinin	-7795
▁respect	-7796
▁replaced	-7797
'".	-7798
anik	-7799
base	-7800
ique	-7801
▁Fil	-7802
▁hop	-7803
orial	-7804
oskova	-7805
▁mesaj	-7806
▁prens	-7807
▁tenis	-7808
▁annesi	-7809
▁kayded	-7810
▁incelen	-7811
▁nitelik	-7812
▁zamanlarda	-7813
roy	-7814
yal	-7815
yor	-7816
▁"\	-7817
iced	-7818
▁Rep	-7819
▁flu	-7820
▁kaf	-7821
▁lez	-7822
▁vad	-7823
▁Baha	-7824
▁song	-7825
▁Erkek	-7826
▁Millî	-7827
▁benef	-7828
ecektir	-7829
▁olanak	-7830
▁yukarı	-7831
▁atmosfer	-7832
▁söyledim	-7833
mac	-7834
▁"/	-7835
ağın	-7836
ests	-7837
rade	-7838
Alman	-7839
ediği	-7840
maktan	-7841
onyalı	-7842
▁konuda	-7843
▁teklif	-7844
▁çıkardı	-7845
▁demonstr	-7846
▁therefore	-7847
cil	-7848
copy	-7849
iven	-7850
teen	-7851
▁Say	-7852
▁Set	-7853
ented	-7854
liler	-7855
Import	-7856
errors	-7857
▁makam	-7858
▁sürec	-7859
▁broken	-7860
▁depend	-7861
▁origin	-7862
▁coordin	-7863
▁opportun	-7864
▁thousand	-7865
▁cumhuriyet	-7866
▁düzenlenen	-7867
VE	-7868
başı	-7869
hood	-7870
▁Mer	-7871
▁Tay	-7872
▁act	-7873
▁işe	-7874
Bugün	-7875
inted	-7876
▁Read	-7877
ashing	-7878
▁kanal	-7879
Message	-7880
▁Kupası	-7881
▁advant	-7882
▁groups	-7883
▁techni	-7884
▁Bununla	-7885
▁Tatoeba	-7886
▁görülen	-7887
▁matches	-7888
▁guarante	-7889
▁installed	-7890
▁president	-7891
}\	-7892
liy	-7893
uce	-7894
▁bi	-7895
ithm	-7896
▁Kaf	-7897
▁UTF	-7898
▁sys	-7899
adalı	-7900
antum	-7901
esson	-7902
flags	-7903
▁gücü	-7904
▁yans	-7905
atları	-7906
▁aktif	-7907
▁duyur	-7908
▁girls	-7909
▁bunlar	-7910
▁kişilik	-7911
Gr	-7912
Any	-7913
vin	-7914
derr	-7915
fret	-7916
▁bag	-7917
▁inj	-7918
Çocuk	-7919
▁Ordu	-7920
▁enem	-7921
işehir	-7922
▁aptal	-7923
▁doubt	-7924
▁forms	-7925
▁kolon	-7926
▁koydu	-7927
▁kelime	-7928
argument	-7929
▁çapında	-7930
▁dönüştür	-7931
▁gösterdi	-7932
▁operatör	-7933
▁recommended	-7934
▁kullanılarak	-7935
Ül	-7936
Bab	-7937
cal	-7938
fil	-7939
▁cm	-7940
emez	-7941
hane	-7942
▁Arn	-7943
▁Kal	-7944
▁Pap	-7945
▁cry	-7946
▁hun	-7947
▁Bölg	-7948
▁kodu	-7949
▁milit	-7950
▁posta	-7951
▁states	-7952
▁tedavi	-7953
▁seçildi	-7954
▁kendisini	-7955
▁traceback	-7956
Ser	-7957
ıza	-7958
well	-7959
üstr	-7960
▁Siv	-7961
Ancak	-7962
▁Comp	-7963
▁evde	-7964
jantin	-7965
▁miyim	-7966
▁peace	-7967
likleri	-7968
▁thirty	-7969
▁entered	-7970
▁toplumsal	-7971
▁represents	-7972
LO	-7973
tec	-7974
exec	-7975
izes	-7976
▁düğ	-7977
▁sud	-7978
enced	-7979
omega	-7980
▁hers	-7981
▁prop	-7982
▁save	-7983
aclass	-7984
preter	-7985
▁ondan	-7986
▁alarak	-7987
▁choose	-7988
▁obtain	-7989
▁olursa	-7990
▁giderek	-7991
▁reached	-7992
yoğunluğu	-7993
▁başlangıç	-7994
▁civarında	-7995
▁Belediyesi	-7996
▁positional	-7997
akya	-7998
▁Bit	-7999
▁Lou	-8000
ament	-8001
first	-8002
▁pred	-8003
▁kömür	-8004
▁sight	-8005
▁London	-8006
▁satisf	-8007
▁Tarihçe	-8008
▁fizikçi	-8009
▁community	-8010
▁direction	-8011
▁matematikçi	-8012
FF	-8013
▁Ob	-8014
▁fl	-8015
Beni	-8016
comm	-8017
resi	-8018
▁Pal	-8019
▁cup	-8020
▁hâl	-8021
▁köş	-8022
▁sın	-8023
While	-8024
larım	-8025
▁soru	-8026
ecially	-8027
▁etmeyi	-8028
▁yapmış	-8029
▁analysis	-8030
▁arkadaşı	-8031
▁Üniversit	-8032
Contributed	-8033
▁edilebilir	-8034
▁kullanılmıştır	-8035
Hiç	-8036
err	-8037
emek	-8038
sign	-8039
▁Ant	-8040
▁Law	-8041
▁Vak	-8042
▁Vol	-8043
▁ban	-8044
based	-8045
group	-8046
tural	-8047
▁Pres	-8048
▁davet	-8049
liğinin	-8050
▁establ	-8051
▁locale	-8052
▁sudden	-8053
▁attempt	-8054
▁century	-8055
▁headers	-8056
▁insanın	-8057
▁discussion	-8058
Mr	-8059
fi	-8060
"),	-8061
afer	-8062
▁dâh	-8063
▁gay	-8064
asons	-8065
laşık	-8066
▁gain	-8067
▁mens	-8068
▁verb	-8069
▁cihaz	-8070
▁issue	-8071
▁super	-8072
▁yaşlı	-8073
▁ebeveyn	-8074
▁endüstr	-8075
▁alanları	-8076
▁equation	-8077
▁filename	-8078
▁kaybetti	-8079
▁senarist	-8080
▁certainly	-8081
▁yeterince	-8082
▁dolayısıyla	-8083
Ph	-8084
ano	-8085
cisi	-8086
▁Ege	-8087
▁Kir	-8088
▁sea	-8089
apper	-8090
sions	-8091
which	-8092
▁Kent	-8093
▁fair	-8094
▁intel	-8095
▁scope	-8096
▁şeyin	-8097
▁larger	-8098
▁animals	-8099
▁gelişim	-8100
Geç	-8101
Tar	-8102
ahi	-8103
▁ast	-8104
astik	-8105
inder	-8106
arbage	-8107
onomik	-8108
▁istif	-8109
▁Darwin	-8110
▁choice	-8111
▁treated	-8112
TypeError	-8113
▁constants	-8114
▁?	-8115
imb	-8116
byte	-8117
fast	-8118
cepts	-8119
onlar	-8120
▁baby	-8121
▁takv	-8122
▁etmem	-8123
▁giren	-8124
▁tutuk	-8125
pattern	-8126
viously	-8127
▁ilçesi	-8128
▁asyncio	-8129
▁eğitimi	-8130
▁üretimi	-8131
▁hayatını	-8132
▁ilçeleri	-8133
▁integers	-8134
▁Fakültesi	-8135
▁durumunda	-8136
(\	-8137
:"	-8138
▁â	-8139
Var	-8140
uit	-8141
chen	-8142
ilme	-8143
oğul	-8144
void	-8145
▁Değ	-8146
▁sad	-8147
▁Flor	-8148
▁Selç	-8149
▁mine	-8150
▁rate	-8151
PYTHON	-8152
▁Fizik	-8153
▁adına	-8154
▁madde	-8155
▁mikro	-8156
▁borrow	-8157
▁caused	-8158
▁etmesi	-8159
▁occurs	-8160
▁oluşum	-8161
▁random	-8162
▁Hükûmet	-8163
▁Litvanya	-8164
▁specifies	-8165
▁Hollandalı	-8166
Mat	-8167
zip	-8168
ğum	-8169
▁mm	-8170
enci	-8171
etic	-8172
umed	-8173
ician	-8174
▁args	-8175
▁konus	-8176
▁yatak	-8177
▁online	-8178
▁Marmara	-8179
▁ayrılır	-8180
▁kendisi	-8181
▁letters	-8182
▁çekirdek	-8183
▁sistemleri	-8184
,"	-8185
Mock	-8186
emli	-8187
▁Kab	-8188
▁Kah	-8189
▁URL	-8190
Bütün	-8191
istor	-8192
olean	-8193
▁sahn	-8194
▁hikây	-8195
▁share	-8196
▁zaten	-8197
▁genelde	-8198
▁hükûmeti	-8199
▁Olimpiyat	-8200
▁operating	-8201
Doc	-8202
▁Im	-8203
▁Oğ	-8204
▁ep	-8205
atür	-8206
▁dör	-8207
style	-8208
▁asit	-8209
▁eğer	-8210
▁kızı	-8211
▁sonu	-8212
Avrupa	-8213
▁düşür	-8214
▁finan	-8215
▁kapas	-8216
▁minor	-8217
▁faktör	-8218
▁forces	-8219
▁meslek	-8220
▁söylen	-8221
▁İsviçre	-8222
▁ettiğini	-8223
▁maintain	-8224
▁resource	-8225
▁gerçekleşti	-8226
itt	-8227
▁Hüs	-8228
▁asp	-8229
icles	-8230
ımızı	-8231
▁NULL	-8232
▁bran	-8233
isions	-8234
▁mezhe	-8235
▁molec	-8236
▁trust	-8237
▁Çocuk	-8238
▁hissed	-8239
▁lesson	-8240
▁hakları	-8241
▁missing	-8242
▁surface	-8243
▁açıkladı	-8244
▁olmasını	-8245
▁çıkmıştır	-8246
▁assignment	-8247
De	-8248
Mem	-8249
fin	-8250
ona	-8251
ymp	-8252
plit	-8253
agram	-8254
ining	-8255
plate	-8256
▁blue	-8257
▁indu	-8258
▁Güven	-8259
▁Yarım	-8260
▁döndü	-8261
▁nefret	-8262
▁suffer	-8263
▁Moskova	-8264
▁seninle	-8265
▁başlarında	-8266
bas	-8267
lad	-8268
oda	-8269
lenme	-8270
medim	-8271
ılımı	-8272
▁Mond	-8273
▁kill	-8274
dipnot	-8275
▁pleas	-8276
▁active	-8277
▁Araştır	-8278
▁Katolik	-8279
▁anlamda	-8280
▁dönemin	-8281
▁genetik	-8282
▁İrlanda	-8283
▁handlers	-8284
▁manyetik	-8285
▁developed	-8286
çu	-8287
▁Na	-8288
multi	-8289
▁Ital	-8290
▁goal	-8291
lemeye	-8292
▁Komut	-8293
▁araya	-8294
▁baskı	-8295
▁dâhil	-8296
▁talep	-8297
▁varsa	-8298
ülasyon	-8299
▁fabrik	-8300
▁bölgeye	-8301
▁whatever	-8302
▁examination	-8303
▁istemiyorum	-8304
cos	-8305
eph	-8306
sat	-8307
aves	-8308
ebir	-8309
otes	-8310
such	-8311
▁Esk	-8312
▁Tor	-8313
▁esp	-8314
▁ste	-8315
▁zih	-8316
▁List	-8317
enedik	-8318
▁aracı	-8319
▁kasab	-8320
mesinin	-8321
▁Satürn	-8322
▁eminim	-8323
▁lütfen	-8324
▁Michael	-8325
▁encoded	-8326
▁güvenlik	-8327
▁(*	-8328
▁ef	-8329
lamb	-8330
sqrt	-8331
▁Bal	-8332
▁Küb	-8333
▁cin	-8334
▁saç	-8335
▁şah	-8336
raman	-8337
ulate	-8338
▁bill	-8339
acağız	-8340
▁mezun	-8341
▁offic	-8342
itation	-8343
▁Enstit	-8344
▁causes	-8345
▁sağlam	-8346
▁CPython	-8347
▁Polonya	-8348
▁feature	-8349
▁ortadan	-8350
▁yapmıştır	-8351
LI	-8352
iti	-8353
ogh	-8354
wid	-8355
heck	-8356
▁dan	-8357
▁yed	-8358
iyatı	-8359
▁sürü	-8360
▁mesaf	-8361
▁tasks	-8362
▁zarar	-8363
▁çiçek	-8364
eksiyon	-8365
stances	-8366
iterable	-8367
madığını	-8368
▁ettiler	-8369
▁protest	-8370
▁tarihçi	-8371
▁accepted	-8372
▁progress	-8373
▁mümkündür	-8374
MAP	-8375
▁CD	-8376
▁Ge	-8377
agon	-8378
down	-8379
obil	-8380
reci	-8381
▁Fix	-8382
▁Kuş	-8383
ulmuş	-8384
▁emer	-8385
▁novel	-8386
▁bilimi	-8387
▁series	-8388
▁getirdi	-8389
▁kelimes	-8390
▁söyleyebilir	-8391
AM	-8392
Go	-8393
ae	-8394
cs	-8395
Ona	-8396
YPE	-8397
ago	-8398
esh	-8399
tarı	-8400
▁Jan	-8401
Trans	-8402
asası	-8403
▁kale	-8404
▁Franc	-8405
▁dokuz	-8406
▁hakkı	-8407
▁istey	-8408
▁starts	-8409
▁taşıyan	-8410
▁creation	-8411
▁University	-8412
▁description	-8413
kn	-8414
Kon	-8415
has	-8416
ico	-8417
airs	-8418
repr	-8419
türk	-8420
▁Sev	-8421
▁Yol	-8422
▁içi	-8423
erler	-8424
ğiniz	-8425
▁ikin	-8426
▁shut	-8427
▁sivil	-8428
▁August	-8429
▁Kilisesi	-8430
▁involved	-8431
▁background	-8432
▁programlama	-8433
▁yapılmıştır	-8434
aat	-8435
cdot	-8436
tris	-8437
▁"--	-8438
▁PHP	-8439
▁Soc	-8440
▁feed	-8441
▁wear	-8442
eksika	-8443
lemesi	-8444
▁amacı	-8445
▁birik	-8446
▁istis	-8447
▁lunch	-8448
▁leaves	-8449
▁yıllar	-8450
▁birinin	-8451
▁düzenli	-8452
▁düşünür	-8453
▁satranç	-8454
▁parçacık	-8455
▁converted	-8456
▁verilmiştir	-8457
aylı	-8458
ners	-8459
▁Max	-8460
▁şar	-8461
eller	-8462
▁Yani	-8463
▁deli	-8464
▁graf	-8465
▁paid	-8466
▁tick	-8467
illage	-8468
▁Aydın	-8469
▁Selim	-8470
▁Çünkü	-8471
acement	-8472
▁birine	-8473
▁gelece	-8474
▁lisans	-8475
▁winter	-8476
▁herself	-8477
▁zorunlu	-8478
▁signific	-8479
▁adlandırılır	-8480
Ge	-8481
nün	-8482
uva	-8483
örf	-8484
atas	-8485
▁lid	-8486
▁mur	-8487
▁wat	-8488
imizi	-8489
stood	-8490
▁Köpr	-8491
▁borç	-8492
▁olas	-8493
center	-8494
▁China	-8495
▁kimya	-8496
handler	-8497
▁notice	-8498
▁places	-8499
▁skills	-8500
▁General	-8501
▁çalışır	-8502
▁Kanadalı	-8503
▁drinking	-8504
▁düşünüyorsun	-8505
çev	-8506
atic	-8507
▁Diy	-8508
local	-8509
▁görü	-8510
▁haft	-8511
▁star	-8512
▁kuşat	-8513
ansiyel	-8514
▁Meclisi	-8515
▁flowers	-8516
▁Describe	-8517
▁behaviour	-8518
▁typically	-8519
():	-8520
Kay	-8521
▁Fa	-8522
Each	-8523
▁Bor	-8524
▁Gar	-8525
▁yel	-8526
▁Çev	-8527
osing	-8528
ğunda	-8529
▁Yine	-8530
▁cisim	-8531
▁sağladı	-8532
▁workers	-8533
▁Fenerbahçe	-8534
▁akademisyen	-8535
▁matematiksel	-8536
RT	-8537
]:	-8538
Rus	-8539
Sub	-8540
dev	-8541
▁ov	-8542
amış	-8543
avut	-8544
oked	-8545
Frame	-8546
▁Alan	-8547
▁köle	-8548
▁mahk	-8549
▁metr	-8550
▁müda	-8551
▁sett	-8552
parser	-8553
▁Ukray	-8554
▁mezar	-8555
▁psych	-8556
▁scale	-8557
leyerek	-8558
▁kişisel	-8559
▁Arjantin	-8560
▁transport	-8561
▁yüksekliği	-8562
▁annotations	-8563
▁representing	-8564
BMM	-8565
bel	-8566
dit	-8567
oyu	-8568
▁öy	-8569
anak	-8570
▁Gan	-8571
▁ara	-8572
▁arz	-8573
▁lic	-8574
doğan	-8575
▁Psik	-8576
elcome	-8577
vention	-8578
▁newspaper	-8579
▁political	-8580
▁sisteminin	-8581
utf	-8582
asın	-8583
icul	-8584
iday	-8585
ivan	-8586
▁gol	-8587
▁göm	-8588
▁tıb	-8589
under	-8590
amples	-8591
option	-8592
▁buluş	-8593
▁trees	-8594
larıdır	-8595
▁Newton	-8596
▁aksine	-8597
▁küresel	-8598
▁wearing	-8599
▁konuşmak	-8600
▁normally	-8601
▁universe	-8602
▁yazılmış	-8603
▁Mahallesi	-8604
▁kalabalık	-8605
▁çoğunluğu	-8606
▁sonlarında	-8607
▁özellikler	-8608
rog	-8609
edom	-8610
inif	-8611
plex	-8612
wood	-8613
▁amb	-8614
▁bol	-8615
▁gül	-8616
▁laz	-8617
▁sıv	-8618
block	-8619
▁Adam	-8620
▁With	-8621
▁özgü	-8622
▁notes	-8623
▁sinir	-8624
alardan	-8625
ilities	-8626
▁edecek	-8627
▁gidece	-8628
▁görevi	-8629
▁görünt	-8630
▁sözcüğü	-8631
▁yiyecek	-8632
▁bölgenin	-8633
▁rahatsız	-8634
▁istemiyor	-8635
ES	-8636
Ön	-8637
gâr	-8638
▁->	-8639
▁SS	-8640
ijer	-8641
▁doğa	-8642
▁artış	-8643
▁await	-8644
▁azalt	-8645
▁hafif	-8646
▁instr	-8647
▁labor	-8648
▁metod	-8649
▁tablo	-8650
erebilir	-8651
mesinden	-8652
▁anlayış	-8653
▁designed	-8654
▁diplomat	-8655
▁yüzünden	-8656
▁resulting	-8657
▁independent	-8658
GS	-8659
Per	-8660
duk	-8661
eus	-8662
hib	-8663
ette	-8664
▁Aks	-8665
▁gas	-8666
▁hom	-8667
▁rom	-8668
crete	-8669
erken	-8670
stead	-8671
▁loss	-8672
▁sock	-8673
lambda	-8674
▁eksik	-8675
▁fixed	-8676
Onların	-8677
▁Efendi	-8678
▁sağlay	-8679
▁Francis	-8680
▁Richard	-8681
▁creates	-8682
▁decimal	-8683
▁maximum	-8684
▁Edebiyat	-8685
▁translate	-8686
abilmektedir	-8687
EX	-8688
Qu	-8689
İH	-8690
dig	-8691
▁Mc	-8692
kale	-8693
▁egg	-8694
acter	-8695
ndaki	-8696
patch	-8697
▁Karş	-8698
▁hala	-8699
▁Henry	-8700
▁aware	-8701
▁nadir	-8702
▁yield	-8703
actions	-8704
▁issues	-8705
▁Çerkes	-8706
▁counter	-8707
▁dünyaya	-8708
▁konuştu	-8709
▁mention	-8710
▁kurulmuş	-8711
▁potential	-8712
ERR	-8713
pop	-8714
▁kâ	-8715
OSIX	-8716
mock	-8717
uous	-8718
▁Bin	-8719
▁inn	-8720
gency	-8721
▁Time	-8722
▁alma	-8723
▁aşam	-8724
▁crow	-8725
▁devr	-8726
▁horm	-8727
iliyor	-8728
▁Fatih	-8729
▁mouth	-8730
▁oyunu	-8731
▁terim	-8732
ication	-8733
▁diller	-8734
▁tennis	-8735
ashington	-8736
▁döndürür	-8737
ACK	-8738
Col	-8739
▁Tev	-8740
▁ant	-8741
▁mim	-8742
Erkek	-8743
eball	-8744
ikler	-8745
oming	-8746
▁fayd	-8747
▁taşı	-8748
▁guess	-8749
▁piano	-8750
▁pilot	-8751
▁aktris	-8752
▁flight	-8753
▁kurucu	-8754
▁mutlak	-8755
▁concert	-8756
▁pictures	-8757
▁olduğunda	-8758
▁sequences	-8759
reh	-8760
spam	-8761
ules	-8762
ialog	-8763
laşım	-8764
▁IDLE	-8765
▁cand	-8766
▁kayb	-8767
▁ettim	-8768
▁şaşır	-8769
pressed	-8770
▁Arapça	-8771
▁açıdan	-8772
▁hâline	-8773
▁slight	-8774
▁trafik	-8775
Learning	-8776
▁contact	-8777
▁doğrult	-8778
▁düşünce	-8779
▁sorumlu	-8780
▁generated	-8781
▁production	-8782
Yer	-8783
aşı	-8784
fut	-8785
ıda	-8786
oter	-8787
▁Gir	-8788
▁nuc	-8789
▁Gogh	-8790
▁etik	-8791
▁flat	-8792
▁vurg	-8793
▁wine	-8794
Burada	-8795
Option	-8796
▁kırık	-8797
▁yanıt	-8798
▁kararı	-8799
▁yandan	-8800
▁driving	-8801
▁testing	-8802
▁indicate	-8803
▁kullanan	-8804
▁miktarda	-8805
▁oluşmaktadır	-8806
Of	-8807
ifik	-8808
onez	-8809
rupt	-8810
Raises	-8811
lained	-8812
▁Ahmed	-8813
▁Frank	-8814
▁eğlen	-8815
▁polis	-8816
▁sunucu	-8817
▁yaptık	-8818
▁coğrafi	-8819
▁zamanlar	-8820
▁görülmektedir	-8821
EP	-8822
},	-8823
ALL	-8824
lis	-8825
▁(%	-8826
luluk	-8827
uples	-8828
▁camp	-8829
▁tanr	-8830
▁vary	-8831
▁çizg	-8832
Create	-8833
dıktan	-8834
ulması	-8835
▁evren	-8836
▁gezeg	-8837
▁gördü	-8838
▁shown	-8839
timeout	-8840
▁Başkan	-8841
▁ailesi	-8842
▁bottom	-8843
▁uzanan	-8844
-------+	-8845
▁Ekonomi	-8846
▁görünüm	-8847
▁compiler	-8848
▁technology	-8849
;"	-8850
FO	-8851
▁]	-8852
▁Gi	-8853
emey	-8854
lang	-8855
veya	-8856
yası	-8857
▁Ama	-8858
▁Kıs	-8859
▁şiş	-8860
match	-8861
talya	-8862
▁Eric	-8863
▁chain	-8864
▁frequ	-8865
Windows	-8866
acağına	-8867
▁Derneği	-8868
▁çocukları	-8869
▁especially	-8870
bey	-8871
ops	-8872
eren	-8873
▁kum	-8874
▁Prof	-8875
▁emek	-8876
▁ship	-8877
▁tari	-8878
madığı	-8879
▁dalga	-8880
▁ödünç	-8881
▁Sarayı	-8882
▁dayalı	-8883
▁nükleer	-8884
▁society	-8885
▁evidence	-8886
▁favorite	-8887
▁depending	-8888
▁olmalıdır	-8889
▁seslendir	-8890
▁comparison	-8891
▁conditions	-8892
▁responsible	-8893
▁translation	-8894
▁bağımsızlığını	-8895
Bay	-8896
ship	-8897
ülük	-8898
▁Ale	-8899
▁scr	-8900
anish	-8901
atory	-8902
teydi	-8903
sırası	-8904
▁ayrım	-8905
▁eight	-8906
▁idari	-8907
▁worse	-8908
defined	-8909
▁adding	-8910
▁kanser	-8911
▁sayılı	-8912
ladığını	-8913
▁Austral	-8914
▁garbage	-8915
▁yönetic	-8916
▁festival	-8917
▁genişlet	-8918
▁çalışıyor	-8919
▁processing	-8920
▁instruction	-8921
azz	-8922
but	-8923
oku	-8924
uru	-8925
ecti	-8926
▁çay	-8927
▁Şey	-8928
▁şer	-8929
ersin	-8930
incan	-8931
▁Leon	-8932
brahim	-8933
▁dağıt	-8934
▁duvar	-8935
▁dynam	-8936
▁niçin	-8937
▁toplu	-8938
▁bilgil	-8939
▁driver	-8940
▁concept	-8941
▁değişim	-8942
▁factory	-8943
▁village	-8944
▁absolute	-8945
▁başlamış	-8946
▁güneyinde	-8947
▁compatibility	-8948
ky	-8949
▁Of	-8950
avuz	-8951
lete	-8952
oğol	-8953
ütte	-8954
▁Köy	-8955
aving	-8956
cının	-8957
▁öyle	-8958
Method	-8959
elerle	-8960
▁Hukuk	-8961
▁fails	-8962
▁tesis	-8963
▁şeker	-8964
▁asking	-8965
▁column	-8966
▁decide	-8967
▁implic	-8968
▁seeing	-8969
Function	-8970
▁Başbakan	-8971
▁istediği	-8972
▁öğrenmek	-8973
lenmektedir	-8974
▁structures	-8975
=|	-8976
sg	-8977
▁FR	-8978
Only	-8979
sity	-8980
▁Lim	-8981
▁döv	-8982
▁fac	-8983
▁ice	-8984
Other	-8985
dilimi	-8986
elidir	-8987
▁Avrup	-8988
▁focus	-8989
▁queue	-8990
▁seemed	-8991
▁quality	-8992
▁yetenek	-8993
▁önceden	-8994
ification	-8995
▁Pakistan	-8996
▁Tiyatrosu	-8997
▁telephone	-8998
▁elektronik	-8999
TÜ	-9000
Kız	-9001
düz	-9002
tak	-9003
cası	-9004
eces	-9005
ints	-9006
▁Cal	-9007
▁Que	-9008
▁Call	-9009
▁Marx	-9010
▁arke	-9011
▁bitk	-9012
▁porn	-9013
tığını	-9014
▁ideal	-9015
▁doldur	-9016
▁speaks	-9017
▁twenty	-9018
ısındaki	-9019
▁Russian	-9020
▁accepts	-9021
▁covered	-9022
▁leading	-9023
▁piyasaya	-9024
▁sayıları	-9025
▁standing	-9026
)'	-9027
REF	-9028
aze	-9029
içi	-9030
pon	-9031
tra	-9032
lüğe	-9033
▁aim	-9034
▁fos	-9035
▁lie	-9036
▁oks	-9037
iliar	-9038
oring	-9039
riage	-9040
▁Just	-9041
▁iste	-9042
likler	-9043
utions	-9044
▁eseri	-9045
▁influ	-9046
▁plans	-9047
▁sömür	-9048
▁sürdü	-9049
▁sınav	-9050
▁voice	-9051
agement	-9052
lection	-9053
▁hayatı	-9054
▁memnun	-9055
▁prison	-9056
▁varlık	-9057
▁ilişkil	-9058
▁padişah	-9059
▁reasons	-9060
▁release	-9061
▁kuyruklu	-9062
▁security	-9063
▁everybody	-9064
▁oldukları	-9065
▁hakkındaki	-9066
▁understood	-9067
tz	-9068
**.	-9069
rev	-9070
uda	-9071
ülk	-9072
▁nö	-9073
Iter	-9074
▁Men	-9075
▁nak	-9076
▁Indi	-9077
▁kole	-9078
▁slot	-9079
adıköy	-9080
except	-9081
▁Aşağı	-9082
▁Sunday	-9083
▁pencer	-9084
▁propos	-9085
▁denilen	-9086
expression	-9087
▁breakfast	-9088
▁kuzeyinde	-9089
▁olacaktır	-9090
▁girlfriend	-9091
▁television	-9092
▁represented	-9093
Sor	-9094
▁Sw	-9095
Başk	-9096
SYİH	-9097
atal	-9098
▁Ana	-9099
▁Saf	-9100
▁dim	-9101
▁esk	-9102
▁map	-9103
aladı	-9104
anged	-9105
event	-9106
puter	-9107
trans	-9108
▁Genç	-9109
lamaya	-9110
▁Media	-9111
▁Nijer	-9112
▁tören	-9113
▁Kalesi	-9114
▁ensure	-9115
▁lideri	-9116
▁sounds	-9117
▁status	-9118
▁enabled	-9119
▁numeric	-9120
▁virtual	-9121
▁walking	-9122
▁certific	-9123
▁yapılması	-9124
▁çevresinde	-9125
sum	-9126
▁),	-9127
▁ax	-9128
▁ır	-9129
danı	-9130
rian	-9131
sche	-9132
▁Gör	-9133
▁beg	-9134
adata	-9135
▁feet	-9136
▁none	-9137
▁phot	-9138
levant	-9139
▁brain	-9140
▁meant	-9141
▁quiet	-9142
▁rakam	-9143
▁reduc	-9144
▁touch	-9145
ilerden	-9146
lığının	-9147
▁Design	-9148
▁iyileş	-9149
▁offset	-9150
▁teşvik	-9151
▁benzeri	-9152
▁sıklıkla	-9153
Baş	-9154
iğe	-9155
ura	-9156
▁ur	-9157
hell	-9158
imde	-9159
irli	-9160
oses	-9161
user	-9162
▁Sür	-9163
▁dük	-9164
odoks	-9165
▁Spec	-9166
▁Filip	-9167
▁Karay	-9168
▁Peter	-9169
▁bakış	-9170
▁habit	-9171
▁isten	-9172
▁uğraş	-9173
abilmek	-9174
▁yazılı	-9175
▁geldiği	-9176
▁katılım	-9177
▁konuşan	-9178
▁studied	-9179
▁weekend	-9180
▁terminal	-9181
▁versiyon	-9182
▁advantage	-9183
▁respective	-9184
▁alternative	-9185
▁communication	-9186
})	-9187
Des	-9188
Exc	-9189
kır	-9190
seq	-9191
Once	-9192
etre	-9193
indi	-9194
okul	-9195
▁ces	-9196
▁dök	-9197
anesi	-9198
await	-9199
olayı	-9200
▁Bank	-9201
▁ends	-9202
Format	-9203
buffer	-9204
icious	-9205
▁eaten	-9206
▁usual	-9207
örneğin	-9208
▁açıldı	-9209
▁belong	-9210
▁bundan	-9211
▁olmalı	-9212
lections	-9213
▁actions	-9214
▁distinc	-9215
▁kitchen	-9216
▁konuşur	-9217
▁minimum	-9218
▁filmleri	-9219
▁programı	-9220
▁Bakanlığı	-9221
Am	-9222
LT	-9223
UR	-9224
---	-9225
split	-9226
▁boss	-9227
▁regr	-9228
actory	-9229
arlığı	-9230
▁Feder	-9231
▁Silah	-9232
▁clock	-9233
▁sinem	-9234
▁tapın	-9235
▁analiz	-9236
▁arrive	-9237
▁düşman	-9238
▁Trabzon	-9239
▁response	-9240
▁returning	-9241
▁yapmaktadır	-9242
ido	-9243
ydi	-9244
alat	-9245
▁yör	-9246
ikten	-9247
▁ayar	-9248
▁False	-9249
▁disip	-9250
▁ettik	-9251
▁ordus	-9252
▁sıfır	-9253
logging	-9254
▁corner	-9255
▁explan	-9256
ilmesini	-9257
▁suggest	-9258
▁yatırım	-9259
▁yaşamak	-9260
▁yaşanan	-9261
▁Introduction	-9262
CO	-9263
▁‘	-9264
Keş	-9265
İlk	-9266
▁Zel	-9267
▁arm	-9268
iltin	-9269
inton	-9270
izmin	-9271
order	-9272
width	-9273
▁edit	-9274
▁rady	-9275
acılık	-9276
mekten	-9277
tecode	-9278
üpiter	-9279
▁Sivas	-9280
▁throw	-9281
landığı	-9282
▁Kafkas	-9283
▁halkın	-9284
▁kapalı	-9285
▁Explain	-9286
▁Yunanca	-9287
▁archive	-9288
▁comment	-9289
▁economy	-9290
▁yürüyüş	-9291
▁occurred	-9292
▁olduğumu	-9293
Ass	-9294
alel	-9295
ford	-9296
hest	-9297
pass	-9298
çesi	-9299
ülür	-9300
▁duyg	-9301
▁fill	-9302
▁insp	-9303
▁join	-9304
▁yola	-9305
▁dosya	-9306
▁impro	-9307
▁polic	-9308
▁retri	-9309
▁sizin	-9310
Japonya	-9311
▁renkli	-9312
▁square	-9313
▁unique	-9314
atasaray	-9315
▁Venedik	-9316
▁managed	-9317
▁Fransızc	-9318
▁Mühendis	-9319
▁ediyordu	-9320
▁kardeşim	-9321
▁tarihsel	-9322
▁vacation	-9323
▁Enstitüsü	-9324
▁JavaScript	-9325
▁components	-9326
Ok	-9327
idin	-9328
önes	-9329
▁Lis	-9330
▁yir	-9331
adası	-9332
allow	-9333
düncü	-9334
range	-9335
▁heat	-9336
omatik	-9337
▁olmaz	-9338
▁patch	-9339
▁çizgi	-9340
▁bahset	-9341
▁bağlam	-9342
▁sonuna	-9343
▁teşkil	-9344
▁katkıda	-9345
importlib	-9346
▁subclasses	-9347
▁tanımlanan	-9348
▁Bulgaristan	-9349
▁temperature	-9350
mo	-9351
Car	-9352
__.	-9353
msg	-9354
▁vs	-9355
iber	-9356
leng	-9357
üreş	-9358
▁Hor	-9359
▁elb	-9360
▁lif	-9361
▁mük	-9362
▁Slov	-9363
▁cast	-9364
father	-9365
▁degree	-9366
▁levels	-9367
▁olmayı	-9368
▁stayed	-9369
cription	-9370
ilmesine	-9371
ılmasına	-9372
▁Erzurum	-9373
▁Konseyi	-9374
▁carried	-9375
▁promise	-9376
▁Selçuklu	-9377
▁ilişkili	-9378
▁neighbor	-9379
▁packages	-9380
▁nüfusunun	-9381
▁properties	-9382
.”	-9383
PC	-9384
dak	-9385
non	-9386
ğiz	-9387
Flag	-9388
osna	-9389
tiye	-9390
çeği	-9391
ğımı	-9392
▁Vir	-9393
Japan	-9394
▁Sonr	-9395
▁kopy	-9396
ayarak	-9397
ecture	-9398
enomen	-9399
target	-9400
▁dakik	-9401
▁gizli	-9402
▁pişir	-9403
▁şüphe	-9404
anguage	-9405
▁Hitler	-9406
▁Arnavut	-9407
▁appreci	-9408
▁kazanan	-9409
▁commands	-9410
▁swimming	-9411
▁Danimarka	-9412
▁bulunmuştur	-9413
fe	-9414
KEY	-9415
exc	-9416
süz	-9417
HTTP	-9418
sequ	-9419
▁Düz	-9420
▁hey	-9421
▁tor	-9422
▁thus	-9423
▁yarg	-9424
ijital	-9425
▁Parkı	-9426
▁blood	-9427
▁yeşil	-9428
maların	-9429
▁bahsed	-9430
▁button	-9431
▁ordusu	-9432
▁discuss	-9433
▁neither	-9434
▁smoking	-9435
▁floating	-9436
▁matching	-9437
▁correctly	-9438
▁existence	-9439
▁indicates	-9440
▁oluşturmaktadır	-9441
Kö	-9442
Dis	-9443
taj	-9444
▁Ey	-9445
akır	-9446
amet	-9447
anta	-9448
osen	-9449
sson	-9450
▁Gül	-9451
▁raw	-9452
▁sky	-9453
▁Öğr	-9454
▁Cour	-9455
▁kaya	-9456
▁simp	-9457
asıdır	-9458
fortun	-9459
▁Balık	-9460
▁Kağan	-9461
▁alive	-9462
▁intro	-9463
lerdeki	-9464
▁Monday	-9465
▁adında	-9466
▁fırlat	-9467
adıkları	-9468
▁omitted	-9469
▁öğretim	-9470
▁describe	-9471
▁modified	-9472
▁ürünleri	-9473
processing	-9474
▁significant	-9475
cks	-9476
ium	-9477
üel	-9478
__",	-9479
kest	-9480
▁Nev	-9481
astro	-9482
frame	-9483
▁bask	-9484
▁dise	-9485
ermark	-9486
▁Class	-9487
▁Kırım	-9488
▁almış	-9489
▁chall	-9490
▁kalır	-9491
▁noise	-9492
ansiyon	-9493
lığında	-9494
request	-9495
▁açılan	-9496
▁olmaya	-9497
▁sorunu	-9498
........	-9499
Everyone	-9500
ccording	-9501
▁Hanedanı	-9502
▁electric	-9503
▁external	-9504
▁patterns	-9505
▁yaşınday	-9506
▁engineering	-9507
*:	-9508
”,	-9509
ube	-9510
eyle	-9511
pick	-9512
▁Sup	-9513
▁nam	-9514
▁paz	-9515
stdin	-9516
ğının	-9517
▁akış	-9518
▁araz	-9519
▁fool	-9520
▁role	-9521
iation	-9522
length	-9523
odules	-9524
çileri	-9525
▁kinds	-9526
▁occur	-9527
▁blocks	-9528
▁entries	-9529
▁impress	-9530
▁towards	-9531
▁visited	-9532
▁yapmayı	-9533
Sometimes	-9534
▁bağlıdır	-9535
▁günümüze	-9536
▁products	-9537
▁çocuklar	-9538
▁mechanism	-9539
▁Avusturyalı	-9540
Os	-9541
uşu	-9542
Comp	-9543
amin	-9544
izmi	-9545
Today	-9546
▁Balk	-9547
▁Here	-9548
▁önde	-9549
▁hücre	-9550
▁kaçır	-9551
▁loved	-9552
▁resol	-9553
▁Özgür	-9554
▁Victor	-9555
▁murder	-9556
▁oluştu	-9557
▁tempor	-9558
▁ulaştı	-9559
ümüzdeki	-9560
▁negatif	-9561
▁zamanla	-9562
▁Coğrafya	-9563
▁yazarları	-9564
▁yayımlanan	-9565
GI	-9566
MS	-9567
**,	-9568
MTP	-9569
TER	-9570
▁Fu	-9571
emem	-9572
opol	-9573
rief	-9574
▁Tic	-9575
ayıcı	-9576
ağını	-9577
dılar	-9578
icans	-9579
known	-9580
tifak	-9581
▁brow	-9582
▁dost	-9583
▁shot	-9584
▁yasa	-9585
▁ikili	-9586
▁onlar	-9587
▁sahil	-9588
▁twice	-9589
▁width	-9590
▁Thread	-9591
▁keşfet	-9592
▁kategor	-9593
▁timeout	-9594
▁imported	-9595
▁Traceback	-9596
▁opportunity	-9597
GE	-9598
ko	-9599
Şu	-9600
ras	-9601
teş	-9602
long	-9603
onik	-9604
▁İsa	-9605
▁idar	-9606
▁pool	-9607
Birçok	-9608
▁Müdür	-9609
▁birer	-9610
▁yolcu	-9611
▁geçici	-9612
▁honest	-9613
▁çıkart	-9614
▁Meksika	-9615
▁airport	-9616
▁noticed	-9617
▁receive	-9618
▁coroutine	-9619
▁vermiştir	-9620
▁determined	-9621
Ann	-9622
het	-9623
ruc	-9624
▁Di	-9625
akal	-9626
ımda	-9627
▁Dir	-9628
▁Dur	-9629
▁Fel	-9630
▁kop	-9631
Keşke	-9632
useum	-9633
akarya	-9634
anyalı	-9635
instein	-9636
meyecek	-9637
▁Ordusu	-9638
▁Sağlık	-9639
▁mensup	-9640
▁anybody	-9641
▁destroy	-9642
▁geçerli	-9643
▁olmakla	-9644
▁yetersiz	-9645
▁interactive	-9646
().	-9647
Yes	-9648
png	-9649
ule	-9650
vis	-9651
ahya	-9652
enge	-9653
ıdır	-9654
▁Gez	-9655
▁Taş	-9656
▁Vad	-9657
▁sel	-9658
andal	-9659
cular	-9660
erbol	-9661
links	-9662
stall	-9663
▁Oyun	-9664
▁aras	-9665
▁evil	-9666
▁hadn	-9667
▁tipi	-9668
abildi	-9669
ilerde	-9670
▁Kitap	-9671
▁doğdu	-9672
▁hepsi	-9673
▁kulüp	-9674
▁stood	-9675
▁anatom	-9676
▁minute	-9677
▁Dağları	-9678
▁Germany	-9679
▁dayanan	-9680
▁located	-9681
▁smaller	-9682
▁yapacak	-9683
▁yapımcı	-9684
▁şimdiye	-9685
▁astronom	-9686
▁merkezine	-9687
▁öldürüldü	-9688
▁üniversite	-9689
▁conversation	-9690
▁international	-9691
rix	-9692
tag	-9693
▁FI	-9694
Will	-9695
qual	-9696
rees	-9697
yond	-9698
▁Dub	-9699
▁GNU	-9700
▁Hem	-9701
▁pah	-9702
▁rah	-9703
▁rej	-9704
Dünya	-9705
bahar	-9706
▁Page	-9707
▁wide	-9708
source	-9709
▁arada	-9710
▁cover	-9711
▁macro	-9712
▁oppos	-9713
▁yürür	-9714
▁çağır	-9715
▁Yıldız	-9716
▁beyond	-9717
▁türler	-9718
abilirler	-9719
▁economic	-9720
▁listening	-9721
▁signature	-9722
▁Washington	-9723
▁karşısında	-9724
▁→	-9725
arn	-9726
büs	-9727
udu	-9728
şık	-9729
▁Eş	-9730
▁NA	-9731
▁üs	-9732
wait	-9733
▁Kum	-9734
▁Tes	-9735
▁Zaz	-9736
ASCII	-9737
Diğer	-9738
ERROR	-9739
orgun	-9740
tured	-9741
▁Açık	-9742
▁Each	-9743
▁Kürt	-9744
▁anne	-9745
▁moon	-9746
▁orij	-9747
▁runs	-9748
cripts	-9749
▁kaçın	-9750
▁kulüb	-9751
▁paths	-9752
iyorsun	-9753
▁Stalin	-9754
▁belief	-9755
▁moving	-9756
▁algorit	-9757
▁capital	-9758
▁İbrahim	-9759
▁merkezinde	-9760
SU	-9761
emp	-9762
ila	-9763
exit	-9764
ural	-9765
zero	-9766
▁Alt	-9767
▁Fır	-9768
▁Mel	-9769
▁Pan	-9770
istin	-9771
state	-9772
▁avuk	-9773
▁taht	-9774
addesi	-9775
kwargs	-9776
▁Helen	-9777
▁aydın	-9778
▁ayrın	-9779
▁satış	-9780
▁türlü	-9781
▁Birçok	-9782
▁Klasik	-9783
▁eğilim	-9784
▁gelmiş	-9785
itespace	-9786
ılmasını	-9787
▁pozitif	-9788
▁süredir	-9789
▁sınırlı	-9790
▁protokol	-9791
mamaktadır	-9792
▁ihtiyacım	-9793
▁suggested	-9794
▁yapımcısı	-9795
▁functionality	-9796
MÖ	-9797
sc	-9798
ien	-9799
rok	-9800
Size	-9801
aklı	-9802
cast	-9803
ımlı	-9804
▁Naz	-9805
▁Tas	-9806
▁ith	-9807
▁wed	-9808
▁Gazi	-9809
▁soul	-9810
sizlik	-9811
▁fault	-9812
▁macOS	-9813
▁scene	-9814
▁tutar	-9815
▁Lisesi	-9816
▁Platon	-9817
▁abroad	-9818
▁birinc	-9819
▁takdir	-9820
▁turizm	-9821
specific	-9822
▁culture	-9823
▁derived	-9824
▁konuşma	-9825
▁Bunların	-9826
▁believed	-9827
▁investig	-9828
▁alışveriş	-9829
▁carefully	-9830
▁doğusunda	-9831
▁selection	-9832
▁kullandığı	-9833
üd	-9834
ginç	-9835
tina	-9836
▁Pek	-9837
▁Tıp	-9838
▁cen	-9839
ailed	-9840
▁Emin	-9841
▁boys	-9842
direct	-9843
stderr	-9844
▁Adası	-9845
▁Moğol	-9846
▁sport	-9847
▁çekti	-9848
▁encour	-9849
▁rights	-9850
▁Kadıköy	-9851
▁yılının	-9852
▁Bağımsız	-9853
▁Ortodoks	-9854
▁abstract	-9855
▁yayımlandı	-9856
▁yayınlanan	-9857
▁compression	-9858
▁mathematics	-9859
PG	-9860
ksi	-9861
ezid	-9862
▁Del	-9863
▁Göz	-9864
▁SQL	-9865
asion	-9866
eliği	-9867
laşma	-9868
▁Kart	-9869
▁olun	-9870
▁yang	-9871
ildren	-9872
stdout	-9873
▁bread	-9874
▁fully	-9875
▁halde	-9876
▁hipot	-9877
▁kahve	-9878
▁metro	-9879
▁storm	-9880
▁Mahkem	-9881
▁sigara	-9882
▁Devrimi	-9883
▁Endonez	-9884
▁Finland	-9885
▁largest	-9886
▁studies	-9887
amaktadır	-9888
▁baseball	-9889
▁bilgiler	-9890
▁movement	-9891
▁algorithm	-9892
▁ölümünden	-9893
▁introduced	-9894
MP	-9895
[]	-9896
Seni	-9897
ales	-9898
book	-9899
free	-9900
verb	-9901
▁Nec	-9902
Those	-9903
etsiz	-9904
ılmaz	-9905
▁Also	-9906
▁bath	-9907
▁bicy	-9908
▁drug	-9909
▁sosy	-9910
typing	-9911
▁Metot	-9912
▁aster	-9913
▁böcek	-9914
▁gitar	-9915
▁green	-9916
▁ihrac	-9917
▁infin	-9918
▁affect	-9919
▁arayüz	-9920
▁caller	-9921
▁demand	-9922
▁escape	-9923
▁mutfak	-9924
▁picked	-9925
▁preced	-9926
▁Erdoğan	-9927
▁benimle	-9928
▁generic	-9929
▁reality	-9930
▁Başbakanı	-9931
ls	-9932
nu	-9933
Tem	-9934
Tüm	-9935
avv	-9936
izy	-9937
iyiz	-9938
join	-9939
ords	-9940
▁Mih	-9941
▁Rev	-9942
▁Var	-9943
▁fer	-9944
▁ikl	-9945
erial	-9946
▁Ligi	-9947
▁Sırp	-9948
ağının	-9949
▁halka	-9950
▁kısıt	-9951
▁nokta	-9952
▁soldi	-9953
▁yılın	-9954
▁Philip	-9955
▁Teknik	-9956
▁kaybol	-9957
▁meteor	-9958
▁preser	-9959
▁talked	-9960
▁convert	-9961
▁musunuz	-9962
▁percent	-9963
▁öncelik	-9964
▁pressure	-9965
▁geldiğini	-9966
▁kullanmak	-9967
▁sayıların	-9968
▁söylediği	-9969
▁çalışmaya	-9970
▁İmparatoru	-9971
FLA	-9972
num	-9973
fred	-9974
grad	-9975
isiz	-9976
kent	-9977
mede	-9978
ogen	-9979
▁imm	-9980
▁zir	-9981
▁First	-9982
▁düştü	-9983
▁ekran	-9984
▁görür	-9985
▁köpek	-9986
▁maruz	-9987
▁Joseph	-9988
▁eleman	-9989
▁faster	-9990
▁listed	-9991
▁meşgul	-9992
▁pieces	-9993
▁planet	-9994
▁Jüpiter	-9995
▁evlilik	-9996
▁savunma	-9997
▁ülkedir	-9998
▁activity	-9999
▁exercise	-10000
▁identity	-10001
▁profession	-10002
▁scientific	-10003
▁bölgelerinde	-10004
▁requirements	-10005
.'	-10006
cık	-10007
itz	-10008
osh	-10009
Does	-10010
Wiki	-10011
▁Air	-10012
▁Fre	-10013
▁Tam	-10014
▁hac	-10015
inner	-10016
opher	-10017
çilik	-10018
▁Koca	-10019
▁boyu	-10020
▁kapı	-10021
▁kids	-10022
▁magn	-10023
▁Hanım	-10024
▁Siyas	-10025
▁maden	-10026
▁nedir	-10027
önesans	-10028
▁başlam	-10029
▁birisi	-10030
▁pratik	-10031
▁basamak	-10032
▁olanlar	-10033
▁realize	-10034
▁yaşamış	-10035
▁Function	-10036
▁promised	-10037
▁recently	-10038
----+----+	-10039
▁Christian	-10040
▁batısında	-10041
▁yönlendir	-10042
▁discovered	-10043
▁kullanıldı	-10044
▁bilinmeyenler	-10045
Mod	-10046
rum	-10047
ınar	-10048
▁tez	-10049
imden	-10050
▁Post	-10051
▁bayr	-10052
▁frek	-10053
▁milk	-10054
alarla	-10055
ishing	-10056
raries	-10057
▁artan	-10058
▁hikay	-10059
▁türet	-10060
▁average	-10061
▁compare	-10062
▁varlığı	-10063
▁şirketi	-10064
▁audience	-10065
▁familiar	-10066
▁apartment	-10067
▁Bilgisayar	-10068
▁durumlarda	-10069
▁Galatasaray	-10070
▁distribution	-10071
(*	-10072
VD	-10073
xx	-10074
AST	-10075
Use	-10076
ora	-10077
▁ct	-10078
eman	-10079
orth	-10080
ypes	-10081
ınca	-10082
▁gun	-10083
Param	-10084
Tuple	-10085
ector	-10086
enses	-10087
leşim	-10088
opter	-10089
▁Nazi	-10090
▁alty	-10091
▁umbr	-10092
mathbb	-10093
▁Saray	-10094
▁gradu	-10095
▁micro	-10096
▁saray	-10097
▁sayım	-10098
▁yasal	-10099
amental	-10100
▁anlamı	-10101
▁circum	-10102
▁parlak	-10103
▁tehdit	-10104
▁yaprak	-10105
▁checked	-10106
▁execute	-10107
▁liberal	-10108
▁willing	-10109
▁yerinde	-10110
▁auditing	-10111
▁bulundur	-10112
▁consists	-10113
▁distingu	-10114
▁national	-10115
▁relevant	-10116
▁teachers	-10117
▁dünyadaki	-10118
▁şunlardır	-10119
▁successful	-10120
)|	-10121
AF	-10122
[,	-10123
omin	-10124
reli	-10125
▁Reg	-10126
▁Tah	-10127
▁mel	-10128
apter	-10129
incir	-10130
zaman	-10131
▁arka	-10132
▁desk	-10133
▁medi	-10134
lusion	-10135
mother	-10136
▁Atlan	-10137
▁Johan	-10138
▁embed	-10139
▁oynam	-10140
▁yapay	-10141
▁almaya	-10142
▁assume	-10143
▁onlara	-10144
▁showed	-10145
▁Decimal	-10146
▁Objects	-10147
▁Science	-10148
▁açıklama	-10149
▁başkanlık	-10150
▁getirildi	-10151
▁bölgelerde	-10152
Run	-10153
laj	-10154
tro	-10155
unç	-10156
hale	-10157
oung	-10158
util	-10159
▁Cen	-10160
▁Yal	-10161
alama	-10162
essiz	-10163
icate	-10164
oktor	-10165
▁bits	-10166
▁publ	-10167
▁İlçe	-10168
antics	-10169
estern	-10170
▁hariç	-10171
▁radio	-10172
▁tüket	-10173
▁unsur	-10174
Element	-10175
▁Futbol	-10176
▁Norveç	-10177
▁Yardım	-10178
▁corpor	-10179
▁metodu	-10180
▁modify	-10181
▁redded	-10182
▁Commons	-10183
▁Romanya	-10184
▁gruplar	-10185
▁medical	-10186
▁younger	-10187
▁düzenlem	-10188
▁milliyet	-10189
▁whenever	-10190
▁ülkeleri	-10191
▁Genellikle	-10192
._	-10193
OW	-10194
Uz	-10195
Hem	-10196
gör	-10197
oru	-10198
ourn	-10199
send	-10200
Yarın	-10201
astır	-10202
▁Körf	-10203
▁Küba	-10204
▁idam	-10205
▁terr	-10206
▁şans	-10207
Boston	-10208
liliği	-10209
▁güreş	-10210
▁Örgüt	-10211
▁charge	-10212
▁kuşlar	-10213
▁appears	-10214
▁felsefe	-10215
▁yöntemi	-10216
▁başbakan	-10217
▁binlerce	-10218
▁parametr	-10219
▁şehirler	-10220
▁Eskişehir	-10221
▁bölgeleri	-10222
▁geçmiştir	-10223
▁oluşturduğu	-10224
Tek	-10225
Info	-10226
eval	-10227
olay	-10228
▁Boy	-10229
▁Jac	-10230
▁Mik	-10231
▁alk	-10232
check	-10233
▁surv	-10234
▁kilis	-10235
▁kimin	-10236
▁komşu	-10237
▁manip	-10238
▁weren	-10239
▁Notlar	-10240
▁Please	-10241
▁cancel	-10242
▁encoun	-10243
▁writer	-10244
isindeki	-10245
▁isteyen	-10246
▁belirgin	-10247
▁implicit	-10248
▁produced	-10249
▁teaching	-10250
fı	-10251
zı	-10252
sam	-10253
İki	-10254
▁EX	-10255
asız	-10256
▁Fas	-10257
▁Luc	-10258
dırım	-10259
emmel	-10260
ipped	-10261
Şimdi	-10262
▁APIs	-10263
▁Emir	-10264
▁Günü	-10265
▁yetk	-10266
işleri	-10267
static	-10268
▁Gazet	-10269
▁Hasan	-10270
▁shoes	-10271
OSError	-10272
▁tasvir	-10273
Argument	-10274
▁Support	-10275
▁inherit	-10276
▁primary	-10277
▁wedding	-10278
▁intellig	-10279
▁military	-10280
▁biliyorsun	-10281
▁conversion	-10282
▁yaşamaktadır	-10283
▁specification	-10284
//	-10285
rm	-10286
isy	-10287
kon	-10288
leb	-10289
oit	-10290
rol	-10291
ugg	-10292
▁ye	-10293
glob	-10294
▁Mid	-10295
▁kid	-10296
▁Ford	-10297
▁Afgan	-10298
▁Bugün	-10299
▁chair	-10300
▁halkı	-10301
▁meyve	-10302
▁shape	-10303
▁tabak	-10304
▁compared	-10305
▁hareketi	-10306
▁altındaki	-10307
▁merkezinin	-10308
▁verilerine	-10309
CON	-10310
Que	-10311
gız	-10312
▁Ky	-10313
zade	-10314
ılma	-10315
▁ctx	-10316
FLAGS	-10317
erior	-10318
geles	-10319
logan	-10320
ursor	-10321
▁Carl	-10322
▁Pier	-10323
▁curr	-10324
▁katk	-10325
system	-10326
▁büyüm	-10327
▁circu	-10328
▁dolaş	-10329
▁duydu	-10330
▁gitmem	-10331
▁inform	-10332
▁player	-10333
Sequence	-10334
abiliriz	-10335
▁bugünkü	-10336
▁comfort	-10337
▁mekaniz	-10338
▁parsing	-10339
▁yaşıyor	-10340
lenebilir	-10341
plication	-10342
▁Kurtuluş	-10343
▁başlandı	-10344
▁orijinal	-10345
▁suitable	-10346
▁felsefesi	-10347
▁bilinmektedir	-10348
UE	-10349
ğen	-10350
▁Ca	-10351
Look	-10352
Bytes	-10353
lerdi	-10354
▁TBMM	-10355
▁alet	-10356
▁azın	-10357
▁köpe	-10358
▁node	-10359
▁seat	-10360
▁sıvı	-10361
mathbf	-10362
▁areas	-10363
▁okula	-10364
▁spoke	-10365
Content	-10366
dikleri	-10367
ebilece	-10368
▁Akadem	-10369
▁istifa	-10370
▁makale	-10371
▁oranda	-10372
▁supply	-10373
▁çocuğu	-10374
▁Clinton	-10375
▁England	-10376
▁Sakarya	-10377
▁konular	-10378
▁yönünde	-10379
▁bölgesel	-10380
▁eserleri	-10381
▁override	-10382
▁evaluated	-10383
▁kalmıştır	-10384
▁philosophy	-10385
▁gerçekleşen	-10386
▁respectively	-10387
CH	-10388
Oh	-10389
rey	-10390
txt	-10391
ğrı	-10392
▁Op	-10393
eria	-10394
star	-10395
writ	-10396
ımın	-10397
▁Cep	-10398
▁Cer	-10399
Maybe	-10400
umsuz	-10401
▁Nept	-10402
▁otor	-10403
ithmet	-10404
▁beach	-10405
▁kenti	-10406
▁koruy	-10407
▁stuff	-10408
▁waste	-10409
▁ölçek	-10410
üttefik	-10411
▁Person	-10412
▁helped	-10413
▁üretic	-10414
▁Angeles	-10415
▁Bayezid	-10416
▁achieve	-10417
▁getirir	-10418
▁yaparak	-10419
▁advanced	-10420
▁greatest	-10421
▁karıştır	-10422
▁religion	-10423
▁surround	-10424
▁İngilizc	-10425
▁ülkelerde	-10426
Ot	-10427
ii	-10428
Mac	-10429
PyP	-10430
lal	-10431
paz	-10432
izer	-10433
meli	-10434
ılıp	-10435
▁'__	-10436
▁Pet	-10437
▁Sym	-10438
▁Yay	-10439
▁tık	-10440
Böyle	-10441
danın	-10442
gelen	-10443
ilmem	-10444
irinç	-10445
malıy	-10446
lusive	-10447
mediği	-10448
▁GSYİH	-10449
▁POSIX	-10450
▁apart	-10451
▁denem	-10452
▁sahne	-10453
▁yarın	-10454
warning	-10455
öğretim	-10456
▁Yılmaz	-10457
▁alacak	-10458
▁conduc	-10459
▁finger	-10460
▁kabile	-10461
▁pulled	-10462
▁çerçev	-10463
▁Almanca	-10464
▁Hüseyin	-10465
▁hastalı	-10466
▁yapıyor	-10467
Implement	-10468
▁comments	-10469
▁compiled	-10470
▁concepts	-10471
▁düşündüm	-10472
▁umbrella	-10473
▁dışındaki	-10474
▁tanımlanır	-10475
IS	-10476
Mon	-10477
STR	-10478
Siz	-10479
api	-10480
ilk	-10481
uge	-10482
uts	-10483
TYPE	-10484
▁Cel	-10485
▁Win	-10486
ciğer	-10487
faces	-10488
▁Kars	-10489
▁situ	-10490
number	-10491
▁board	-10492
▁figür	-10493
▁yumuş	-10494
▁amaçlı	-10495
▁güncel	-10496
▁proced	-10497
▁paralel	-10498
▁raptiye	-10499
▁mühendislik	-10500
Bas	-10501
abs	-10502
adet	-10503
find	-10504
▁Sof	-10505
imize	-10506
itted	-10507
layıp	-10508
stant	-10509
ırsız	-10510
▁blok	-10511
▁fikr	-10512
▁Maria	-10513
▁promp	-10514
▁digits	-10515
▁extrem	-10516
▁mahkem	-10517
▁meclis	-10518
▁spirit	-10519
▁sürece	-10520
▁yetene	-10521
▁Federal	-10522
▁finding	-10523
▁ifadesi	-10524
▁assigned	-10525
▁possibly	-10526
▁strength	-10527
▁tanımlar	-10528
Deprecated	-10529
▁descriptors	-10530
▁grandfather	-10531
=\	-10532
IV	-10533
Net	-10534
İst	-10535
argv	-10536
mini	-10537
▁Emp	-10538
▁Net	-10539
embly	-10540
times	-10541
▁Barb	-10542
▁Kast	-10543
▁Stat	-10544
▁Test	-10545
▁Uran	-10546
▁arms	-10547
▁ring	-10548
▁State	-10549
▁guide	-10550
▁inser	-10551
▁kalma	-10552
▁saygı	-10553
▁Şimdi	-10554
ography	-10555
▁albümü	-10556
▁approx	-10557
▁attend	-10558
▁beklem	-10559
▁birimi	-10560
▁göçmen	-10561
▁ilişki	-10562
▁kurulu	-10563
expected	-10564
▁Develop	-10565
▁checking	-10566
▁sonradan	-10567
▁tutorial	-10568
▁computers	-10569
▁kaynaklar	-10570
▁kuvvetleri	-10571
:\	-10572
TE	-10573
dh	-10574
ço	-10575
teb	-10576
▁*:	-10577
▁]]	-10578
Item	-10579
antı	-10580
icks	-10581
▁Biy	-10582
▁Day	-10583
▁Get	-10584
▁Hit	-10585
▁ağı	-10586
▁evr	-10587
▁göv	-10588
Event	-10589
debug	-10590
lectr	-10591
▁Kalk	-10592
▁kuru	-10593
▁semt	-10594
lesine	-10595
result	-10596
▁cycle	-10597
▁duygu	-10598
▁goods	-10599
▁nehir	-10600
▁üstün	-10601
▁İklim	-10602
▁şarap	-10603
strings	-10604
▁bilinç	-10605
▁bottle	-10606
▁filled	-10607
▁kutsal	-10608
▁strict	-10609
▁typing	-10610
▁bicycle	-10611
▁dilinde	-10612
▁dönüşüm	-10613
▁gerilim	-10614
▁tabanlı	-10615
lerindeki	-10616
▁Komünist	-10617
▁bozukluk	-10618
▁warnings	-10619
▁contained	-10620
▁ekonomisi	-10621
)",	-10622
jik	-10623
tep	-10624
üce	-10625
▁IV	-10626
cılı	-10627
desi	-10628
flow	-10629
klid	-10630
usuf	-10631
▁Rod	-10632
▁vec	-10633
astic	-10634
field	-10635
iform	-10636
makla	-10637
sınız	-10638
▁Süre	-10639
▁cred	-10640
▁dedi	-10641
▁gere	-10642
▁kons	-10643
ilyalı	-10644
▁Atina	-10645
▁beden	-10646
▁drunk	-10647
▁enemy	-10648
▁hasta	-10649
▁hattı	-10650
▁liked	-10651
▁taşır	-10652
▁yönel	-10653
biyotik	-10654
miyorum	-10655
▁camera	-10656
▁filter	-10657
▁master	-10658
▁movies	-10659
▁recurs	-10660
Although	-10661
entially	-10662
▁Latince	-10663
▁federal	-10664
mışlardır	-10665
▁dördüncü	-10666
▁Christmas	-10667
▁connected	-10668
▁initialized	-10669
▁interpreted	-10670
EW	-10671
IF	-10672
pa	-10673
tk	-10674
rap	-10675
▁Fe	-10676
▁Ga	-10677
▁RE	-10678
Aynı	-10679
Code	-10680
alty	-10681
ancı	-10682
ozom	-10683
umes	-10684
▁Red	-10685
▁kov	-10686
▁suy	-10687
▁upd	-10688
▁ust	-10689
First	-10690
ağına	-10691
ersen	-10692
▁Many	-10693
▁fiil	-10694
▁king	-10695
▁öykü	-10696
ternet	-10697
uluğun	-10698
▁Louis	-10699
▁bebek	-10700
▁sevdi	-10701
adığını	-10702
▁Kolomb	-10703
▁asleep	-10704
▁clause	-10705
▁dışına	-10706
▁finans	-10707
▁region	-10708
▁sanatı	-10709
ülmüştür	-10710
▁dayanır	-10711
▁gitmeyi	-10712
▁yapılar	-10713
▁Güvenlik	-10714
▁properly	-10715
▁Alexander	-10716
▁demiryolu	-10717
▁önemlidir	-10718
collections	-10719
▁convention	-10720
▁ilişkileri	-10721
▁implements	-10722
▁kazanmıştır	-10723
▁construction	-10724
oe	-10725
Lin	-10726
ubb	-10727
öre	-10728
Conn	-10729
Eski	-10730
▁koz	-10731
▁Tekn	-10732
▁beer	-10733
▁isol	-10734
append	-10735
erator	-10736
itions	-10737
ominal	-10738
▁Gandi	-10739
▁denet	-10740
▁incor	-10741
lıkları	-10742
▁Engine	-10743
▁dialog	-10744
▁ilginç	-10745
▁spread	-10746
▁tuples	-10747
▁replace	-10748
▁büyüklüğ	-10749
▁kazandır	-10750
▁kelimesi	-10751
▁yerleşik	-10752
▁happening	-10753
▁libraries	-10754
▁çalışması	-10755
▁performans	-10756
▁explanation	-10757
Id	-10758
içe	-10759
raç	-10760
▁Ag	-10761
ancy	-10762
pres	-10763
▁Alp	-10764
▁His	-10765
▁Ker	-10766
▁ayı	-10767
▁büt	-10768
▁esn	-10769
▁siz	-10770
Hello	-10771
craft	-10772
oslav	-10773
▁Term	-10774
▁band	-10775
▁grav	-10776
▁serg	-10777
▁Savun	-10778
▁atlet	-10779
▁devre	-10780
▁ought	-10781
▁steps	-10782
▁stick	-10783
▁tepki	-10784
▁thank	-10785
▁upper	-10786
▁çekim	-10787
Gelecek	-10788
▁Kutsal	-10789
▁adının	-10790
▁bestec	-10791
▁depart	-10792
▁gerekç	-10793
▁spoken	-10794
PyConfig	-10795
callback	-10796
▁Birinci	-10797
▁ihtimal	-10798
▁kalıntı	-10799
▁yapması	-10800
▁İsveçli	-10801
▁etkileri	-10802
▁görenler	-10803
▁selected	-10804
▁boyfriend	-10805
▁tarihinin	-10806
fortunately	-10807
▁specifying	-10808
▁yapabilece	-10809
▁öğrenciler	-10810
"'	-10811
CE	-10812
dt	-10813
(),	-10814
agn	-10815
cus	-10816
▁/*	-10817
▁Ro	-10818
▁sü	-10819
()":	-10820
Film	-10821
azıt	-10822
bian	-10823
ereb	-10824
lite	-10825
mary	-10826
plan	-10827
▁Adı	-10828
▁Doc	-10829
aktif	-10830
▁glob	-10831
Writer	-10832
ahisar	-10833
ristal	-10834
▁Using	-10835
▁cache	-10836
▁isyan	-10837
▁komed	-10838
▁Lesson	-10839
▁katman	-10840
register	-10841
▁görünür	-10842
▁critical	-10843
▁financial	-10844
▁yüzyıldan	-10845
▁aralarında	-10846
▁kapsamında	-10847
▁registered	-10848
▁görünüyordu	-10849
▁olabileceğini	-10850
VER	-10851
dec	-10852
nel	-10853
Stop	-10854
paşa	-10855
stmt	-10856
▁:::	-10857
▁Boz	-10858
▁Sir	-10859
▁akr	-10860
▁ris	-10861
▁vil	-10862
alist	-10863
endar	-10864
kadaş	-10865
store	-10866
▁ceza	-10867
▁hurt	-10868
▁şeye	-10869
▁Fried	-10870
▁Reich	-10871
▁liste	-10872
▁türev	-10873
▁units	-10874
▁veget	-10875
▁ücret	-10876
ografik	-10877
▁işlemi	-10878
▁review	-10879
▁rüzgâr	-10880
▁terimi	-10881
▁yerler	-10882
▁complic	-10883
▁handled	-10884
▁restric	-10885
▁speaker	-10886
▁aktivist	-10887
▁changing	-10888
▁complain	-10889
▁wondered	-10890
▁yazarlar	-10891
▁alanlarda	-10892
▁konuşulan	-10893
▁fonksiyonu	-10894
▁oluşturmak	-10895
▁techniques	-10896
▁yapacağını	-10897
▁bağımsızlık	-10898
▁coordinates	-10899
▁asynchronous	-10900
▁participants	-10901
AX	-10902
HA	-10903
>",	-10904
Bet	-10905
iff	-10906
sul	-10907
sym	-10908
şak	-10909
apol	-10910
azen	-10911
▁Tep	-10912
▁oil	-10913
▁reh	-10914
thumb	-10915
▁West	-10916
▁otel	-10917
▁race	-10918
Buffer	-10919
▁Okyan	-10920
▁Saint	-10921
▁games	-10922
▁gören	-10923
▁horse	-10924
▁periy	-10925
▁zafer	-10926
lamalar	-10927
mesinde	-10928
▁Albert	-10929
▁String	-10930
▁breath	-10931
▁placed	-10932
▁süreci	-10933
abilirim	-10934
▁Spanish	-10935
▁deneyim	-10936
▁ederken	-10937
▁kısmını	-10938
▁ordered	-10939
▁şehirde	-10940
▁derecede	-10941
▁Polonyalı	-10942
▁somewhere	-10943
▁sırasıyla	-10944
▁increasing	-10945
▁araştırmacı	-10946
▁söylediğini	-10947
PU	-10948
rc	-10949
Ör	-10950
Kan	-10951
XML	-10952
ado	-10953
diy	-10954
ebe	-10955
darı	-10956
pare	-10957
▁Los	-10958
▁Rel	-10959
▁org	-10960
▁şik	-10961
iğine	-10962
unlar	-10963
▁rise	-10964
execut	-10965
icians	-10966
ectives	-10967
▁basınç	-10968
▁harder	-10969
threaded	-10970
▁Belçika	-10971
▁Kütahya	-10972
▁sources	-10973
▁windows	-10974
exception	-10975
mişlerdir	-10976
▁yapıları	-10977
▁babasının	-10978
▁concerned	-10979
▁performed	-10980
▁toprakları	-10981
▁differences	-10982
▁fundamental	-10983
▁yapılmaktadır	-10984
([	-10985
Cl	-10986
ND	-10987
iko	-10988
iny	-10989
oms	-10990
osa	-10991
uri	-10992
üks	-10993
erse	-10994
▁SSC	-10995
▁pus	-10996
▁rid	-10997
chars	-10998
input	-10999
▁Quiz	-11000
▁arma	-11001
▁bear	-11002
▁glad	-11003
▁kriz	-11004
▁math	-11005
▁pati	-11006
otocol	-11007
▁analy	-11008
▁rakım	-11009
▁tıbbi	-11010
▁şekli	-11011
▁Kullan	-11012
▁formal	-11013
▁gather	-11014
▁island	-11015
▁refers	-11016
▁select	-11017
▁yıldan	-11018
▁Örgütü	-11019
▁compreh	-11020
▁güvenli	-11021
▁printed	-11022
▁yerleri	-11023
▁belirtir	-11024
▁bitkiler	-11025
▁literals	-11026
▁mükemmel	-11027
▁supplied	-11028
▁türünden	-11029
▁bölümünde	-11030
▁principles	-11031
▁milletvekili	-11032
SCO	-11033
hak	-11034
kop	-11035
▁İd	-11036
Tell	-11037
imet	-11038
mann	-11039
olar	-11040
rozen	-11041
▁adds	-11042
▁manz	-11043
▁masa	-11044
▁reli	-11045
Before	-11046
amayan	-11047
ülmesi	-11048
▁After	-11049
▁depol	-11050
▁uncle	-11051
▁Çalış	-11052
▁Galile	-11053
▁domain	-11054
▁erişim	-11055
▁ismini	-11056
▁loaded	-11057
▁mevsim	-11058
▁reklam	-11059
▁serial	-11060
▁süresi	-11061
ithmetic	-11062
▁hayatta	-11063
▁yazılan	-11064
▁Abdülham	-11065
▁otomobil	-11066
▁services	-11067
▁precision	-11068
▁alternatif	-11069
▁identifier	-11070
SET	-11071
ees	-11072
erg	-11073
orf	-11074
abah	-11075
arkı	-11076
itan	-11077
▁Key	-11078
▁emb	-11079
▁ilg	-11080
▁süs	-11081
anges	-11082
angle	-11083
essor	-11084
ilies	-11085
▁hızı	-11086
▁kalp	-11087
▁reco	-11088
▁sarı	-11089
▁While	-11090
▁oraya	-11091
▁pairs	-11092
▁sanay	-11093
▁archit	-11094
▁açıkça	-11095
▁church	-11096
▁elinde	-11097
▁forest	-11098
▁hardly	-11099
▁highly	-11100
▁concent	-11101
▁etkiler	-11102
liğindeki	-11103
▁kullandı	-11104
▁metredir	-11105
▁müdahale	-11106
▁realized	-11107
▁yararlan	-11108
▁Endonezya	-11109
▁seçimleri	-11110
▁varlığını	-11111
▁initialization	-11112
▁implementations	-11113
Ek	-11114
İç	-11115
Ref	-11116
rip	-11117
▁*#	-11118
▁Ko	-11119
Stat	-11120
cell	-11121
▁Ann	-11122
▁Mev	-11123
▁Moz	-11124
▁Rub	-11125
ellow	-11126
▁Düny	-11127
▁cake	-11128
▁gemi	-11129
▁işçi	-11130
▁Çağı	-11131
dikten	-11132
▁Afyon	-11133
▁Boğaz	-11134
▁Yerel	-11135
▁faith	-11136
▁quant	-11137
▁topic	-11138
▁veloc	-11139
▁vücut	-11140
lıyorum	-11141
▁Kırgız	-11142
▁begins	-11143
▁checks	-11144
▁etiket	-11145
▁guitar	-11146
▁sınırı	-11147
amayacak	-11148
▁desired	-11149
▁remains	-11150
▁yükselt	-11151
▁Filistin	-11152
▁Language	-11153
▁Rönesans	-11154
▁anywhere	-11155
▁devletin	-11156
▁üretilen	-11157
▁gelebilir	-11158
▁Yarımadası	-11159
▁formatting	-11160
▁koleksiyon	-11161
▁arasındadır	-11162
▁kendilerini	-11163
▁seviyesinden	-11164
▁Ün	-11165
cean	-11166
stry	-11167
▁Seç	-11168
▁fat	-11169
▁çeş	-11170
biyen	-11171
likte	-11172
poses	-11173
▁cars	-11174
▁heps	-11175
▁kabu	-11176
▁lots	-11177
▁luck	-11178
▁miss	-11179
▁salt	-11180
▁fresh	-11181
▁kıyas	-11182
▁muhaf	-11183
▁yirmi	-11184
arbakır	-11185
dıkları	-11186
lamento	-11187
▁bellek	-11188
▁neighb	-11189
ographic	-11190
▁British	-11191
▁commonly	-11192
▁proposal	-11193
lamaktadır	-11194
▁sezonunda	-11195
▁eventually	-11196
▁basketbolcu	-11197
▁definitions	-11198
▁dictionaries	-11199
SP	-11200
▁"*	-11201
▁OK	-11202
emat	-11203
enth	-11204
lymp	-11205
serv	-11206
▁CHP	-11207
▁Cla	-11208
▁Mic	-11209
▁Mut	-11210
▁Soy	-11211
▁tay	-11212
antaj	-11213
dirne	-11214
çılık	-11215
▁Free	-11216
▁Uzun	-11217
▁Your	-11218
▁itir	-11219
▁jump	-11220
▁quit	-11221
▁rica	-11222
▁trig	-11223
▁uzat	-11224
▁Basic	-11225
▁Intel	-11226
▁arama	-11227
▁escap	-11228
▁haned	-11229
▁holds	-11230
▁istih	-11231
▁istik	-11232
▁stars	-11233
▁sitesi	-11234
▁tırman	-11235
▁bizimle	-11236
▁ederler	-11237
▁paralle	-11238
▁çocuğun	-11239
▁chemical	-11240
▁interval	-11241
▁Australia	-11242
▁Makedonya	-11243
▁Matematik	-11244
▁Mezarlığı	-11245
▁agreement	-11246
▁allocated	-11247
▁operasyon	-11248
▁parametre	-11249
▁transform	-11250
▁oluşturulan	-11251
Im	-11252
Fin	-11253
cii	-11254
git	-11255
ayıp	-11256
yılı	-11257
▁Fir	-11258
▁Sad	-11259
▁Vis	-11260
▁sex	-11261
Osman	-11262
Which	-11263
title	-11264
▁Bill	-11265
▁Jane	-11266
▁Perl	-11267
▁Aleks	-11268
▁bulut	-11269
▁efsan	-11270
▁fikri	-11271
▁liman	-11272
▁marry	-11273
▁stage	-11274
▁tahta	-11275
▁önüne	-11276
▁duydum	-11277
▁düzlem	-11278
▁kökeni	-11279
▁resmen	-11280
▁switch	-11281
▁örneği	-11282
▁desteği	-11283
▁logical	-11284
▁wrapped	-11285
▁başlattı	-11286
▁kadınlar	-11287
▁yerlerde	-11288
▁extremely	-11289
▁requested	-11290
▁imparatoru	-11291
▁introduction	-11292
-"	-11293
án	-11294
▁"[	-11295
Then	-11296
lisi	-11297
omer	-11298
ünüz	-11299
▁Hin	-11300
▁Kav	-11301
▁Nic	-11302
▁Sez	-11303
▁fot	-11304
▁gür	-11305
igned	-11306
lustr	-11307
okulu	-11308
ously	-11309
▁Bern	-11310
▁Then	-11311
▁blam	-11312
▁stil	-11313
▁sıkı	-11314
atives	-11315
▁Değiş	-11316
▁Yusuf	-11317
▁beyin	-11318
▁delay	-11319
▁tells	-11320
▁yapma	-11321
▁Bakanı	-11322
▁adjust	-11323
▁compan	-11324
▁compos	-11325
▁inşaat	-11326
▁ekonomi	-11327
▁Yıldırım	-11328
▁cinsiyet	-11329
▁hidrojen	-11330
Interpreter	-11331
▁concurrent	-11332
▁experiment	-11333
ArgumentParser	-11334
▁düşünülmektedir	-11335
AP	-11336
LOC	-11337
dio	-11338
izo	-11339
▁na	-11340
Enum	-11341
izon	-11342
ompl	-11343
▁Bet	-11344
▁Deb	-11345
▁Div	-11346
▁Haw	-11347
▁Ref	-11348
▁boğ	-11349
▁güz	-11350
▁oğl	-11351
PyErr	-11352
ademi	-11353
alanı	-11354
eygam	-11355
ezuel	-11356
utely	-11357
▁Coun	-11358
▁club	-11359
▁enum	-11360
modern	-11361
▁Beyaz	-11362
▁Okulu	-11363
▁Yeşil	-11364
▁accur	-11365
▁hâkim	-11366
▁tatil	-11367
▁tipik	-11368
eceğimi	-11369
izasyon	-11370
▁Taksim	-11371
▁Turizm	-11372
▁aralık	-11373
▁bridge	-11374
▁bulmak	-11375
▁expand	-11376
▁propag	-11377
▁ülkesi	-11378
eygamber	-11379
timoloji	-11380
▁birliği	-11381
▁courses	-11382
▁kültürü	-11383
▁olumsuz	-11384
▁Einstein	-11385
▁accessed	-11386
▁kontrolü	-11387
▁özgürlük	-11388
▁Araştırma	-11389
▁Bunlardan	-11390
▁container	-11391
▁contribut	-11392
▁explained	-11393
ûm	-11394
API	-11395
Kim	-11396
NOT	-11397
dal	-11398
sky	-11399
▁Ep	-11400
▁çı	-11401
esir	-11402
iers	-11403
ilet	-11404
keys	-11405
▁ren	-11406
cache	-11407
ounds	-11408
works	-11409
üğünü	-11410
▁ödev	-11411
isters	-11412
parent	-11413
▁Malta	-11414
▁düşen	-11415
▁mouse	-11416
▁taban	-11417
▁Öklid	-11418
▁önerm	-11419
ensions	-11420
support	-11421
▁Martin	-11422
▁animal	-11423
▁baskın	-11424
▁bright	-11425
▁sessiz	-11426
▁spring	-11427
▁threat	-11428
▁Example	-11429
▁freedom	-11430
▁helping	-11431
▁invoked	-11432
▁tanınan	-11433
acağından	-11434
▁hatırlat	-11435
▁marriage	-11436
▁purposes	-11437
▁şiddetli	-11438
▁aylarında	-11439
▁formatted	-11440
▁translated	-11441
Lit	-11442
evk	-11443
obi	-11444
▁(-	-11445
▁Li	-11446
anks	-11447
imir	-11448
▁DVD	-11449
▁Mas	-11450
▁mic	-11451
▁muc	-11452
▁std	-11453
▁ısı	-11454
aging	-11455
mıyor	-11456
ordur	-11457
phere	-11458
tanın	-11459
▁Bing	-11460
▁Karl	-11461
▁hate	-11462
▁mult	-11463
▁warm	-11464
Herkes	-11465
urllib	-11466
ılmaya	-11467
▁broad	-11468
▁ikiye	-11469
▁kayıp	-11470
▁özerk	-11471
Program	-11472
Request	-11473
lektrik	-11474
mesidir	-11475
▁Oyuncu	-11476
▁Ülkede	-11477
sequence	-11478
▁Ticaret	-11479
▁argüman	-11480
▁düzeyde	-11481
▁illness	-11482
According	-11483
▁Ericsson	-11484
▁declared	-11485
▁dilbilim	-11486
▁opposite	-11487
▁painting	-11488
▁released	-11489
▁sleeping	-11490
▁classroom	-11491
▁decisions	-11492
▁kaldırıldı	-11493
▁katılmıştır	-11494
▁necessarily	-11495
)]	-11496
awa	-11497
eds	-11498
hum	-11499
ync	-11500
▁Lu	-11501
ikat	-11502
ışma	-11503
▁acı	-11504
▁ekr	-11505
▁las	-11506
▁len	-11507
▁tea	-11508
▁tit	-11509
▁erdi	-11510
▁gold	-11511
▁pron	-11512
▁sant	-11513
▁seek	-11514
▁vert	-11515
elling	-11516
▁Vakfı	-11517
▁balan	-11518
▁bildi	-11519
▁hadis	-11520
▁iptal	-11521
▁sakin	-11522
▁title	-11523
▁yargı	-11524
▁Özbek	-11525
Runtime	-11526
▁buying	-11527
▁gazete	-11528
▁gördüm	-11529
▁latter	-11530
▁manner	-11531
▁earthqu	-11532
▁license	-11533
▁yörünge	-11534
▁articles	-11535
▁essential	-11536
▁Brezilyalı	-11537
▁throughout	-11538
▁zorundayım	-11539
▁Hırvatistan	-11540
▁yakınlarında	-11541
AI	-11542
▁li	-11543
Kend	-11544
Ulus	-11545
ojen	-11546
omut	-11547
▁Lev	-11548
▁evi	-11549
▁foo	-11550
▁gib	-11551
▁işg	-11552
▁nih	-11553
büyük	-11554
mamız	-11555
tihar	-11556
▁Kend	-11557
▁Stud	-11558
▁büny	-11559
▁lamb	-11560
▁otuz	-11561
alanan	-11562
lasyon	-11563
▁Donan	-11564
▁Temel	-11565
▁goals	-11566
▁namaz	-11567
stantin	-11568
▁görsel	-11569
▁images	-11570
▁taught	-11571
▁turist	-11572
estimate	-11573
İnsanlar	-11574
▁Improve	-11575
▁degrees	-11576
▁güneyde	-11577
▁imagine	-11578
▁protect	-11579
▁ölümüne	-11580
▁üstünde	-11581
ightarrow	-11582
▁Okyanusu	-11583
▁although	-11584
▁bytecode	-11585
▁komedyen	-11586
▁reaction	-11587
▁electrons	-11588
▁gerektiği	-11589
▁providing	-11590
▁seviyorum	-11591
▁söylemedi	-11592
▁bilmiyordu	-11593
▁convenient	-11594
▁executable	-11595
▁whitespace	-11596
▁birbirinden	-11597
GC	-11598
SB	-11599
cm	-11600
ía	-11601
BUG	-11602
Kur	-11603
vad	-11604
▁Kâ	-11605
▁Sk	-11606
▁{'	-11607
arta	-11608
elis	-11609
▁Mec	-11610
▁sığ	-11611
icken	-11612
▁Bang	-11613
▁bizi	-11614
▁card	-11615
▁cerr	-11616
▁imza	-11617
▁mask	-11618
▁mülk	-11619
Server	-11620
ailing	-11621
luding	-11622
others	-11623
ulated	-11624
▁dilin	-11625
▁farkı	-11626
▁keeps	-11627
▁saved	-11628
Process	-11629
duction	-11630
options	-11631
▁Adalet	-11632
▁Yukarı	-11633
▁arttır	-11634
▁avukat	-11635
▁beauty	-11636
▁histor	-11637
▁remote	-11638
▁şekill	-11639
ferences	-11640
▁Köprüsü	-11641
▁clearly	-11642
▁physics	-11643
▁variety	-11644
▁shopping	-11645
▁addresses	-11646
▁arkadaşım	-11647
▁biliyordu	-11648
▁happiness	-11649
▁operators	-11650
▁yayınladı	-11651
Dr	-11652
MB	-11653
OK	-11654
RI	-11655
fol	-11656
usa	-11657
iner	-11658
reme	-11659
▁Dal	-11660
▁Inc	-11661
▁pir	-11662
▁Önc	-11663
aklar	-11664
▁Ceza	-11665
▁Cons	-11666
iğinin	-11667
▁Doğal	-11668
▁Model	-11669
▁kurak	-11670
▁pitch	-11671
PyPegen	-11672
▁biçimi	-11673
▁Türkmen	-11674
▁accompl	-11675
▁eserler	-11676
▁kavramı	-11677
▁typical	-11678
▁Abdullah	-11679
▁gitarist	-11680
▁haritası	-11681
▁industry	-11682
▁requests	-11683
▁Yayınları	-11684
▁teknoloji	-11685
▁şarkıcısı	-11686
▁dönemlerde	-11687
▁potansiyel	-11688
▁grandmother	-11689
NS	-11690
TA	-11691
ao	-11692
yr	-11693
:**	-11694
Ner	-11695
TRA	-11696
▁<=	-11697
ESCO	-11698
vari	-11699
▁Dün	-11700
▁Düş	-11701
▁Pop	-11702
▁Tol	-11703
organ	-11704
unced	-11705
ysics	-11706
▁Uzay	-11707
▁wise	-11708
▁Anton	-11709
▁South	-11710
▁basis	-11711
▁decre	-11712
▁trace	-11713
▁unvan	-11714
▁alması	-11715
▁gittik	-11716
▁humans	-11717
▁yanına	-11718
mamıştır	-11719
▁Göktürk	-11720
▁belediy	-11721
▁değişir	-11722
▁düşündü	-11723
▁invited	-11724
▁kolayca	-11725
▁newline	-11726
▁yönelim	-11727
▁demokras	-11728
▁instanti	-11729
▁President	-11730
▁biyolojik	-11731
▁Finlandiya	-11732
▁International	-11733
DS	-11734
Su	-11735
].	-11736
dr	-11737
ns	-11738
eda	-11739
rot	-11740
usr	-11741
▁Ov	-11742
Over	-11743
mers	-11744
plat	-11745
thur	-11746
what	-11747
▁Bek	-11748
▁içe	-11749
▁nan	-11750
Using	-11751
denin	-11752
▁Bunu	-11753
▁onto	-11754
alısın	-11755
luğunu	-11756
maması	-11757
ılacak	-11758
▁Kimya	-11759
▁Organ	-11760
▁Prens	-11761
▁Sinif	-11762
▁alana	-11763
▁kanat	-11764
▁lying	-11765
▁plain	-11766
▁tutul	-11767
stitute	-11768
▁Edward	-11769
▁Kurumu	-11770
▁günler	-11771
▁prices	-11772
abiliyor	-11773
▁karışık	-11774
▁univers	-11775
▁verimli	-11776
ılmasıyla	-11777
▁edildiği	-11778
▁pozisyon	-11779
▁surprise	-11780
▁yoğunlaş	-11781
▁oluşturdu	-11782
▁generation	-11783
▁previously	-11784
▁özelliklerini	-11785
▁~	-11786
Box	-11787
Fut	-11788
eld	-11789
▁Tk	-11790
▁dt	-11791
agor	-11792
amın	-11793
edin	-11794
hten	-11795
ilit	-11796
olen	-11797
▁Bec	-11798
▁RFC	-11799
▁ker	-11800
▁tuz	-11801
Thank	-11802
andar	-11803
iğini	-11804
posta	-11805
umped	-11806
ımlar	-11807
▁Grup	-11808
▁gıda	-11809
▁loud	-11810
▁Çele	-11811
abancı	-11812
ilemez	-11813
iğinde	-11814
▁Bursa	-11815
▁colon	-11816
▁yaras	-11817
getitem	-11818
mayacak	-11819
▁büyüme	-11820
▁enable	-11821
▁height	-11822
▁nation	-11823
▁değerli	-11824
▁geliyor	-11825
▁kapsamlı	-11826
▁sections	-11827
▁yolculuk	-11828
▁displayed	-11829
▁treatment	-11830
▁compatible	-11831
▁birbirlerine	-11832
(-	-11833
nü	-11834
ATH	-11835
Rem	-11836
ULT	-11837
kab	-11838
▁ST	-11839
egin	-11840
help	-11841
ikan	-11842
lice	-11843
üllü	-11844
▁Hik	-11845
▁Hip	-11846
▁fly	-11847
acted	-11848
tools	-11849
▁Musa	-11850
▁Proj	-11851
▁Vlad	-11852
▁büyü	-11853
▁dinî	-11854
▁fort	-11855
urance	-11856
▁vergi	-11857
aliforn	-11858
▁İsmail	-11859
ointment	-11860
▁formats	-11861
▁miktarı	-11862
▁okyanus	-11863
▁yüzyıla	-11864
▁İlçenin	-11865
verything	-11866
▁Venezuel	-11867
▁official	-11868
▁powerful	-11869
▁slightly	-11870
▁Americans	-11871
▁Güneydoğu	-11872
▁Otherwise	-11873
▁bulunması	-11874
▁decorator	-11875
▁sanatçıları	-11876
▁yaşındayken	-11877
▁particularly	-11878
▁değişiklikler	-11879
,\	-11880
BSD	-11881
Reg	-11882
SIG	-11883
Tan	-11884
eve	-11885
Eval	-11886
task	-11887
▁Bre	-11888
▁kin	-11889
▁lec	-11890
▁seg	-11891
▁sul	-11892
▁şef	-11893
atıcı	-11894
items	-11895
usion	-11896
▁Mant	-11897
▁Most	-11898
▁dram	-11899
▁meat	-11900
ağında	-11901
hether	-11902
▁Bahai	-11903
▁cebir	-11904
▁entir	-11905
▁kitle	-11906
▁niyet	-11907
▁İnönü	-11908
Initial	-11909
ugoslav	-11910
▁Kurulu	-11911
▁Ulaşım	-11912
▁koruma	-11913
▁nested	-11914
▁bileşen	-11915
▁bilimci	-11916
▁boyutlu	-11917
▁divided	-11918
▁koordin	-11919
▁opening	-11920
▁evrensel	-11921
▁gönderdi	-11922
▁settings	-11923
▁ücretsiz	-11924
▁Hastanesi	-11925
▁diğerleri	-11926
▁ilçesinde	-11927
▁düşünmüyor	-11928
▁geliştirme	-11929
▁karşılıklı	-11930
▁convenience	-11931
▁ilişkilendir	-11932
hr	-11933
cin	-11934
dex	-11935
kay	-11936
tum	-11937
Çin	-11938
▁uf	-11939
acon	-11940
atan	-11941
Ülke	-11942
▁Liz	-11943
▁Tal	-11944
▁riv	-11945
▁üre	-11946
engiz	-11947
inizi	-11948
usunu	-11949
uvarı	-11950
ülmüş	-11951
▁Stor	-11952
▁Teor	-11953
▁core	-11954
▁hous	-11955
▁lehç	-11956
▁whom	-11957
called	-11958
▁Union	-11959
▁köprü	-11960
▁loves	-11961
▁sokak	-11962
▁sorum	-11963
Nothing	-11964
section	-11965
▁Farsça	-11966
▁Gerçek	-11967
▁Russia	-11968
▁kalmak	-11969
▁kalıcı	-11970
▁kısmen	-11971
▁piyano	-11972
▁toward	-11973
▁wisdom	-11974
▁yetkil	-11975
abilmesi	-11976
▁advised	-11977
▁bunları	-11978
▁conflic	-11979
▁disease	-11980
▁becoming	-11981
▁olmaması	-11982
▁velocity	-11983
aliforniya	-11984
▁completed	-11985
▁disappear	-11986
▁efficient	-11987
▁sorunları	-11988
▁absolutely	-11989
▁istiyorsan	-11990
▁recognized	-11991
ird	-11992
tuk	-11993
▁bü	-11994
grup	-11995
ietz	-11996
safe	-11997
sers	-11998
uals	-11999
▁ISO	-12000
▁Pic	-12001
▁pun	-12002
▁pup	-12003
Bizim	-12004
Geçen	-12005
▁Arch	-12006
▁From	-12007
▁Naur	-12008
▁SSCB	-12009
▁eggs	-12010
▁kazı	-12011
▁skin	-12012
minist	-12013
▁Great	-12014
▁Olymp	-12015
▁crime	-12016
▁knife	-12017
▁sharp	-12018
asyonel	-12019
birliği	-12020
leridir	-12021
▁afford	-12022
▁export	-12023
▁hungry	-12024
▁nearly	-12025
▁Çelebi	-12026
▁Zelanda	-12027
▁gerekti	-12028
▁ihracat	-12029
▁knowing	-12030
▁seviyor	-12031
▁tarihte	-12032
Attribute	-12033
▁maddeler	-12034
▁otomatik	-12035
▁reddetti	-12036
▁sistemin	-12037
▁soldiers	-12038
▁describes	-12039
▁insanlara	-12040
▁yapmasını	-12041
▁appreciate	-12042
▁complicated	-12043
▁traditional	-12044
Ah	-12045
Ağ	-12046
DA	-12047
RO	-12048
US	-12049
Dev	-12050
Tur	-12051
awn	-12052
pha	-12053
tee	-12054
ypt	-12055
More	-12056
hesi	-12057
işli	-12058
lace	-12059
spor	-12060
step	-12061
umuz	-12062
▁aşk	-12063
▁eks	-12064
▁gur	-12065
▁nis	-12066
PyAST	-12067
mayın	-12068
omany	-12069
tıraş	-12070
usuna	-12071
▁Rock	-12072
▁Uçak	-12073
▁Viet	-12074
▁edge	-12075
▁edip	-12076
▁laug	-12077
▁mavi	-12078
▁sear	-12079
▁sold	-12080
▁wiki	-12081
leybol	-12082
olitik	-12083
▁ayırt	-12084
▁birds	-12085
▁hurry	-12086
▁kabuk	-12087
replace	-12088
▁Otobüs	-12089
▁apolog	-12090
▁ignore	-12091
▁iklimi	-12092
▁income	-12093
▁indent	-12094
▁kaybed	-12095
▁kuramı	-12096
▁makine	-12097
▁plants	-12098
▁slowly	-12099
▁yorgun	-12100
▁ülkeyi	-12101
ulations	-12102
▁Ukrayna	-12103
▁matters	-12104
▁seçenek	-12105
▁parallel	-12106
▁psikiyat	-12107
▁enfeksiyon	-12108
)]]	-12109
Ali	-12110
Bey	-12111
cev	-12112
lup	-12113
uni	-12114
İsp	-12115
▁Ba	-12116
===|	-12117
bool	-12118
feri	-12119
leye	-12120
ympt	-12121
▁Any	-12122
▁Ren	-12123
▁Wal	-12124
▁kef	-12125
▁tal	-12126
Güneş	-12127
yntax	-12128
▁coat	-12129
Execut	-12130
System	-12131
border	-12132
üldüğü	-12133
▁ahead	-12134
▁darbe	-12135
▁müdür	-12136
▁proxy	-12137
▁tears	-12138
▁Dönemi	-12139
▁Neptün	-12140
▁düzelt	-12141
▁zamana	-12142
▁çağdaş	-12143
▁Akademi	-12144
▁cookies	-12145
▁evlendi	-12146
▁factors	-12147
▁iktidar	-12148
▁exchange	-12149
▁suddenly	-12150
▁uzunluğu	-12151
▁Etimoloji	-12152
▁hastalığı	-12153
▁hükümdarı	-12154
▁directories	-12155
▁kırıklığına	-12156
ón	-12157
INE	-12158
JPG	-12159
Pat	-12160
mud	-12161
ori	-12162
tez	-12163
CREF	-12164
ours	-12165
▁Bon	-12166
▁NOT	-12167
▁amp	-12168
▁toz	-12169
▁utc	-12170
Yunan	-12171
irken	-12172
words	-12173
▁Aziz	-12174
▁Hacı	-12175
▁kimi	-12176
▁Ömer	-12177
amanın	-12178
idents	-12179
onspor	-12180
üyordu	-12181
▁EXTRA	-12182
▁Greek	-12183
▁Image	-12184
▁Pazar	-12185
▁bilir	-12186
▁displ	-12187
▁legal	-12188
▁rapid	-12189
factory	-12190
tkinter	-12191
▁Edirne	-12192
▁benden	-12193
▁device	-12194
▁geriye	-12195
▁mezhep	-12196
▁nobody	-12197
▁regret	-12198
malarını	-12199
▁console	-12200
▁görmeye	-12201
▁yumuşak	-12202
▁category	-12203
▁komünist	-12204
▁olasılık	-12205
meyeceğini	-12206
▁Friedrich	-12207
▁kişilerin	-12208
▁recommend	-12209
▁nitelendir	-12210
▁regardless	-12211
▁ayrılmıştır	-12212
▁combination	-12213
▁antlaşmaları	-12214
PS	-12215
ZE	-12216
dl	-12217
dy	-12218
bağ	-12219
how	-12220
ota	-12221
ows	-12222
▁Cr	-12223
▁Ha	-12224
Like	-12225
andı	-12226
ares	-12227
hold	-12228
▁Arg	-12229
▁Vas	-12230
▁caz	-12231
▁nin	-12232
Küçük	-12233
inary	-12234
iyana	-12235
izofr	-12236
işsel	-12237
lemiş	-12238
usted	-12239
▁açar	-12240
▁laws	-12241
▁menu	-12242
▁suyu	-12243
ferans	-12244
▁Solar	-12245
▁brief	-12246
▁girer	-12247
▁logic	-12248
▁olası	-12249
▁trade	-12250
zonspor	-12251
▁Vadisi	-12252
▁başlık	-12253
▁sinyal	-12254
▁slogan	-12255
▁tamamı	-12256
▁vector	-12257
ermarket	-12258
ietzsche	-12259
▁Hareket	-12260
▁ancient	-12261
▁kapasit	-12262
▁lessons	-12263
▁obvious	-12264
▁entirely	-12265
▁etmesini	-12266
▁karanlık	-12267
▁organize	-12268
▁presence	-12269
▁Mahkemesi	-12270
▁destroyed	-12271
▁documents	-12272
▁parenthes	-12273
▁sosyalist	-12274
▁extensions	-12275
▁instrument	-12276
▁kaynakları	-12277
▁arkadaşları	-12278
▁established	-12279
▁probability	-12280
▁göstermiştir	-12281
GB	-12282
ART	-12283
Yak	-12284
bur	-12285
Both	-12286
Init	-12287
omed	-12288
rier	-12289
root	-12290
▁Mot	-12291
▁Why	-12292
▁soğ	-12293
▁Üst	-12294
Japon	-12295
ayolu	-12296
▁cele	-12297
▁firm	-12298
▁icat	-12299
▁Çoğu	-12300
During	-12301
__()",	-12302
cistan	-12303
▁Adana	-12304
▁Manço	-12305
▁istat	-12306
▁izlen	-12307
▁judge	-12308
▁numer	-12309
▁sürer	-12310
▁tarihî	-12311
▁circuit	-12312
▁highest	-12313
▁korumak	-12314
▁perhaps	-12315
▁Avrupalı	-12316
▁datetime	-12317
▁somebody	-12318
başkanlığı	-12319
▁tarafında	-12320
▁varsayılan	-12321
PyTypeObject	-12322
▁responsibility	-12323
Well	-12324
akat	-12325
aken	-12326
igin	-12327
itir	-12328
lend	-12329
ozor	-12330
ydro	-12331
▁cas	-12332
▁dry	-12333
▁enz	-12334
▁oda	-12335
Added	-12336
Güney	-12337
Queue	-12338
night	-12339
teger	-12340
▁City	-12341
▁hell	-12342
▁kağı	-12343
▁Üzer	-12344
Nobody	-12345
erbola	-12346
oteles	-12347
▁hekim	-12348
▁parça	-12349
▁subay	-12350
▁tarzı	-12351
▁taste	-12352
▁yenil	-12353
▁ödülü	-12354
density	-12355
▁Sanayi	-12356
▁anılan	-12357
▁kahver	-12358
▁sürgün	-12359
optparse	-12360
▁Yönetim	-12361
▁anayasa	-12362
▁frekans	-12363
▁holding	-12364
▁ittifak	-12365
▁komutan	-12366
▁molekül	-12367
▁putting	-12368
▁stories	-12369
leyebilir	-12370
▁alanının	-12371
▁belirtti	-12372
▁contract	-12373
▁detailed	-12374
▁protesto	-12375
▁training	-12376
▁girmiştir	-12377
▁ourselves	-12378
▁earthquake	-12379
▁eleştirmen	-12380
▁geldiğinde	-12381
▁gelişmeler	-12382
▁@	-12383
SON	-12384
Case	-12385
aydı	-12386
azığ	-12387
iest	-12388
mark	-12389
next	-12390
this	-12391
umun	-12392
▁Lag	-12393
▁dut	-12394
▁led	-12395
▁pal	-12396
▁pip	-12397
ascii	-12398
clear	-12399
sızın	-12400
vator	-12401
▁Anti	-12402
▁doku	-12403
Stream	-12404
elenek	-12405
▁Bölge	-12406
▁keşif	-12407
▁kızıl	-12408
▁takma	-12409
başlığı	-12410
▁branch	-12411
▁ekrana	-12412
▁manage	-12413
▁yeryüz	-12414
▁Körfezi	-12415
▁Stinner	-12416
▁buradan	-12417
▁refused	-12418
▁watched	-12419
▁çıktığı	-12420
▁inherited	-12421
▁sayısının	-12422
▁separated	-12423
▁İrlandalı	-12424
▁Afganistan	-12425
▁Macaristan	-12426
▁Management	-12427
▁başkanlığı	-12428
▁importance	-12429
▁communicate	-12430
▁circumstances	-12431
'>	-12432
Open	-12433
^^^^	-12434
agan	-12435
cher	-12436
edef	-12437
quis	-12438
stil	-12439
▁Kel	-12440
▁güv	-12441
▁hek	-12442
▁vah	-12443
cohol	-12444
icked	-12445
ilimi	-12446
ively	-12447
ookie	-12448
sever	-12449
üsünü	-12450
▁Serv	-12451
▁army	-12452
▁beat	-12453
▁döng	-12454
▁kiss	-12455
▁scho	-12456
eciler	-12457
lemeyi	-12458
▁Evren	-12459
▁adres	-12460
▁aldım	-12461
▁grant	-12462
▁yapıt	-12463
Arkadaş	-12464
compile	-12465
luğunun	-12466
▁bastır	-12467
▁defned	-12468
▁former	-12469
▁işleme	-12470
▁launch	-12471
▁muhale	-12472
▁takvim	-12473
▁Kocaeli	-12474
▁Symbian	-12475
▁Türkler	-12476
▁boolean	-12477
▁efforts	-12478
▁hizmete	-12479
▁olaylar	-12480
▁raining	-12481
▁worried	-12482
▁bölümünü	-12483
▁disabled	-12484
▁kentinde	-12485
▁yetişkin	-12486
Connection	-12487
▁ortasında	-12488
▁Diyarbakır	-12489
▁bağlantılı	-12490
▁olmaktadır	-12491
Introduction	-12492
▁heykeltıraş	-12493
▁sayılabilir	-12494
▁vermektedir	-12495
IM	-12496
PL	-12497
Üç	-12498
;"|	-12499
GET	-12500
gat	-12501
▁AC	-12502
▁İt	-12503
Make	-12504
▁Nes	-12505
▁SSL	-12506
▁ali	-12507
▁anı	-12508
▁fas	-12509
▁kup	-12510
▁köt	-12511
▁vek	-12512
break	-12513
inery	-12514
çekim	-12515
▁desp	-12516
▁guys	-12517
▁lend	-12518
▁lies	-12519
▁vent	-12520
▁zevk	-12521
▁magaz	-12522
▁portr	-12523
▁ölümü	-12524
Default	-12525
alandır	-12526
▁Trakya	-12527
▁absent	-12528
▁denize	-12529
▁matery	-12530
▁Studies	-12531
▁sockets	-12532
threading	-12533
▁akademik	-12534
▁alabilir	-12535
▁attached	-12536
▁büyüklük	-12537
▁etkinlik	-12538
▁feelings	-12539
▁merkezli	-12540
▁conscious	-12541
▁debugging	-12542
▁olmasıdır	-12543
▁particles	-12544
▁standards	-12545
▁uygulanan	-12546
Implemented	-12547
▁demokratik	-12548
▁mitolojisi	-12549
▁constructed	-12550
▁mathematical	-12551
Up	-12552
').	-12553
ATE	-12554
Has	-12555
Pre	-12556
leg	-12557
oya	-12558
ugu	-12559
öly	-12560
▁#*	-12561
▁Ir	-12562
▁Öl	-12563
avar	-12564
cles	-12565
helm	-12566
iste	-12567
oder	-12568
unit	-12569
Belki	-12570
oting	-12571
tract	-12572
üksel	-12573
▁adap	-12574
▁grew	-12575
▁lady	-12576
ilidir	-12577
imizin	-12578
rupted	-12579
▁Techn	-12580
▁civil	-12581
▁plant	-12582
▁batıda	-12583
▁critic	-12584
▁seçene	-12585
▁çoğunu	-12586
▁Sonraki	-12587
▁alanlar	-12588
▁browser	-12589
▁hearing	-12590
▁mailbox	-12591
▁visible	-12592
▁European	-12593
▁Kraliyet	-12594
▁Yaklaşık	-12595
▁download	-12596
▁prepared	-12597
▁Abdülhamid	-12598
▁situations	-12599
▁seçimlerinde	-12600
▁birbirleriyle	-12601
DO	-12602
fs	-12603
hl	-12604
şi	-12605
▁¿	-12606
skü	-12607
▁Aj	-12608
▁yı	-12609
NAME	-12610
addr	-12611
kabı	-12612
▁Out	-12613
▁Vik	-12614
▁dot	-12615
▁kok	-12616
▁küç	-12617
arsız	-12618
eytin	-12619
ladık	-12620
orter	-12621
▁Anne	-12622
▁Atom	-12623
▁aram	-12624
▁func	-12625
antino	-12626
ellent	-12627
▁Since	-12628
▁Tarım	-12629
▁bağır	-12630
▁blank	-12631
▁mısın	-12632
▁persu	-12633
▁rakip	-12634
▁smell	-12635
Decimal	-12636
Similar	-12637
package	-12638
▁Kanunu	-12639
▁Theory	-12640
▁formed	-12641
▁gotten	-12642
▁hormon	-12643
▁pahalı	-12644
▁remind	-12645
▁sample	-12646
eleriyle	-12647
lemiştir	-12648
recation	-12649
Öğretmen	-12650
▁Eminönü	-12651
▁cooking	-12652
▁denetim	-12653
▁kariyer	-12654
▁çekildi	-12655
configure	-12656
▁Yugoslav	-12657
▁bireysel	-12658
▁değerini	-12659
▁annotation	-12660
Op	-12661
[-	-12662
Hey	-12663
III	-12664
ORT	-12665
tek	-12666
▁om	-12667
enes	-12668
okes	-12669
otip	-12670
▁CSS	-12671
▁lab	-12672
empty	-12673
ensiz	-12674
▁krom	-12675
▁yürü	-12676
atuvar	-12677
ilerle	-12678
rapper	-12679
sküdar	-12680
struct	-12681
▁Konya	-12682
▁danış	-12683
▁parse	-12684
▁rezer	-12685
▁stone	-12686
leşmesi	-12687
▁Cengiz	-12688
▁Kardeş	-12689
▁Module	-12690
▁assert	-12691
▁dağlık	-12692
▁görece	-12693
▁locked	-12694
▁olamaz	-12695
▁sorted	-12696
▁ticket	-12697
▁unable	-12698
ducation	-12699
edeniyet	-12700
▁alınmış	-12701
▁answers	-12702
▁gelişme	-12703
▁glasses	-12704
▁growing	-12705
▁intihar	-12706
▁kristal	-12707
▁scholar	-12708
▁yolları	-12709
▁Hükûmeti	-12710
▁concrete	-12711
▁dikkatli	-12712
▁eserinde	-12713
▁practical	-12714
▁yürürlüğe	-12715
▁department	-12716
▁doğrultusunda	-12717
Es	-12718
KK	-12719
bes	-12720
ibe	-12721
iro	-12722
ito	-12723
pre	-12724
zet	-12725
▁[-	-12726
aled	-12727
elli	-12728
lası	-12729
osis	-12730
sort	-12731
uydu	-12732
▁Sün	-12733
▁Teş	-12734
▁phr	-12735
▁tra	-12736
Kadın	-12737
mamak	-12738
perty	-12739
▁Frig	-12740
▁NASA	-12741
▁anıt	-12742
▁atış	-12743
▁hatt	-12744
▁tend	-12745
ointed	-12746
▁Gümüş	-12747
▁Sınıf	-12748
▁bağış	-12749
▁kalit	-12750
▁kutup	-12751
▁serve	-12752
▁solid	-12753
▁yansı	-12754
Osmanlı	-12755
▁battle	-12756
▁kaydet	-12757
▁scheme	-12758
▁stolen	-12759
olojinin	-12760
▁Estonya	-12761
▁capable	-12762
▁courage	-12763
▁drawing	-12764
▁illustr	-12765
▁istedim	-12766
▁romancı	-12767
▁silahlı	-12768
▁species	-12769
▁gördüğüm	-12770
▁başladığı	-12771
▁değerleri	-12772
▁expressed	-12773
▁gezegenin	-12774
▁introduce	-12775
▁kitapları	-12776
▁öncesinde	-12777
annotations	-12778
▁başlayarak	-12779
▁guaranteed	-12780
▁oyuncuları	-12781
▁tanımlamak	-12782
▁yapılandır	-12783
▁olduklarını	-12784
▁kullanılması	-12785
FI	-12786
INT	-12787
Hava	-12788
Last	-12789
seud	-12790
sini	-12791
▁CPU	-12792
▁Jim	-12793
▁kuz	-12794
madım	-12795
üşter	-12796
▁Braz	-12797
▁Flag	-12798
▁More	-12799
▁Pass	-12800
▁attı	-12801
▁harm	-12802
▁rice	-12803
▁sene	-12804
Logger	-12805
elendi	-12806
▁Music	-12807
▁Satur	-12808
▁Value	-12809
▁atoms	-12810
▁knock	-12811
▁plays	-12812
▁tetik	-12813
▁uyarı	-12814
▁verme	-12815
CPython	-12816
ierarch	-12817
▁Method	-12818
oğulları	-12819
▁gelişen	-12820
▁geçerek	-12821
▁noktada	-12822
▁National	-12823
▁aircraft	-12824
▁collabor	-12825
▁generate	-12826
▁kısmında	-12827
▁pleasure	-12828
▁proposed	-12829
▁Ödülleri	-12830
▁hakimiyet	-12831
▁increment	-12832
▁iyileştir	-12833
▁kendisinin	-12834
▁çocukların	-12835
▁Dolayısıyla	-12836
'])	-12837
Har	-12838
cht	-12839
dae	-12840
▁PC	-12841
Take	-12842
idel	-12843
iral	-12844
kate	-12845
oyal	-12846
untu	-12847
▁"""	-12848
▁Sek	-12849
=====	-12850
Check	-12851
geler	-12852
ilmez	-12853
trace	-12854
▁Beat	-12855
▁Merc	-12856
▁Star	-12857
▁spam	-12858
▁tong	-12859
eksüel	-12860
giller	-12861
making	-12862
script	-12863
▁Sonuç	-12864
▁admit	-12865
▁angle	-12866
▁bozul	-12867
▁etmez	-12868
▁soyut	-12869
▁sugar	-12870
Address	-12871
luğunda	-12872
thernet	-12873
▁Meclis	-12874
▁Sadece	-12875
▁achiev	-12876
▁grafik	-12877
▁impact	-12878
▁mimari	-12879
▁pirinç	-12880
▁prompt	-12881
▁stress	-12882
▁takson	-12883
▁uyumlu	-12884
▁uzanır	-12885
▁yarısı	-12886
liğinden	-12887
▁gerçeği	-12888
▁offered	-12889
▁sahipti	-12890
▁streams	-12891
▁Cemiyeti	-12892
▁repeated	-12893
▁tartışma	-12894
▁anlamında	-12895
▁intention	-12896
▁principle	-12897
▁yaralandı	-12898
▁istatistik	-12899
▁cumhurbaşkanı	-12900
▁dayanmaktadır	-12901
ja	-12902
rü	-12903
'))	-12904
lew	-12905
uba	-12906
enya	-12907
imer	-12908
sayı	-12909
uing	-12910
▁Cev	-12911
▁mob	-12912
▁rüt	-12913
Delta	-12914
ances	-12915
artes	-12916
eness	-12917
erved	-12918
lerim	-12919
rance	-12920
tains	-12921
ılışı	-12922
imedia	-12923
yaleti	-12924
▁Color	-12925
▁facts	-12926
▁fruit	-12927
▁teeth	-12928
▁ötürü	-12929
▁üçgen	-12930
▁Arthur	-12931
▁Columb	-12932
▁almayı	-12933
▁crying	-12934
▁istisn	-12935
▁savaşı	-12936
▁sebebi	-12937
▁senary	-12938
▁topics	-12939
▁devleti	-12940
▁mutable	-12941
▁division	-12942
▁integral	-12943
▁tanımlan	-12944
▁çalıştığı	-12945
▁permission	-12946
▁milletvekil	-12947
▁Hristiyanlık	-12948
▁gerekçesiyle	-12949
▁organization	-12950
BA	-12951
UP	-12952
Two	-12953
amv	-12954
rut	-12955
yol	-12956
ğru	-12957
alın	-12958
blem	-12959
opes	-12960
▁ABC	-12961
▁Sep	-12962
▁TRT	-12963
▁Yan	-12964
▁Yas	-12965
▁ayg	-12966
Genel	-12967
amonu	-12968
manız	-12969
▁Pure	-12970
▁Wiki	-12971
▁sizi	-12972
▁tail	-12973
▁tour	-12974
lywood	-12975
▁Brown	-12976
▁Bütün	-12977
▁depth	-12978
▁heter	-12979
▁miles	-12980
▁yaşar	-12981
▁yitir	-12982
▁çağrı	-12983
ateTime	-12984
connect	-12985
lenerek	-12986
▁Dublin	-12987
▁Option	-12988
▁UNESCO	-12989
▁desire	-12990
▁gelmek	-12991
▁latest	-12992
▁manual	-12993
▁spaces	-12994
▁waited	-12995
▁taşındı	-12996
abilities	-12997
ilerinden	-12998
sequences	-12999
▁Computer	-13000
▁Vladimir	-13001
subprocess	-13002
▁emergency	-13003
▁ülkelerin	-13004
▁Büyükşehir	-13005
▁sağlamıştır	-13006
▁tartışmalar	-13007
Dem	-13008
Kır	-13009
sar	-13010
ssl	-13011
tah	-13012
▁AT	-13013
PATH	-13014
appy	-13015
avig	-13016
eliş	-13017
olas	-13018
▁Alb	-13019
▁Cap	-13020
▁Fik	-13021
▁Kad	-13022
▁erm	-13023
▁kis	-13024
Hayat	-13025
Never	-13026
ermay	-13027
ladeş	-13028
legal	-13029
▁Cent	-13030
▁Ener	-13031
▁Onun	-13032
▁blow	-13033
▁nine	-13034
▁tall	-13035
▁wild	-13036
andaki	-13037
ayacak	-13038
örüntü	-13039
▁Süper	-13040
▁split	-13041
▁üzgün	-13042
current	-13043
▁kentin	-13044
▁sugges	-13045
▁wealth	-13046
polation	-13047
▁Protest	-13048
▁applies	-13049
▁felsefi	-13050
▁injured	-13051
▁karşıtı	-13052
▁operand	-13053
▁raising	-13054
Fransızca	-13055
omanyetik	-13056
▁Dünyanın	-13057
▁approxim	-13058
▁combined	-13059
memektedir	-13060
▁companies	-13061
EG	-13062
MD	-13063
çü	-13064
"",	-13065
Men	-13066
gic	-13067
nic	-13068
▁Tw	-13069
alet	-13070
ered	-13071
fill	-13072
ijen	-13073
pril	-13074
▁yav	-13075
▁şif	-13076
avvuf	-13077
elled	-13078
leyin	-13079
netic	-13080
▁Kole	-13081
▁poll	-13082
▁pull	-13083
▁shel	-13084
▁trop	-13085
Fransa	-13086
ardaki	-13087
birimi	-13088
tivity	-13089
▁chord	-13090
▁laugh	-13091
▁parad	-13092
▁Commun	-13093
▁builds	-13094
▁butter	-13095
▁equals	-13096
▁işlevi	-13097
▁kısalt	-13098
▁ülkeye	-13099
Herhangi	-13100
asyonlar	-13101
handlers	-13102
ilerinde	-13103
leştirme	-13104
▁Meydanı	-13105
▁Nijerya	-13106
▁Process	-13107
▁akciğer	-13108
▁benefit	-13109
▁eklendi	-13110
▁measure	-13111
▁blocking	-13112
▁disiplin	-13113
▁numarası	-13114
▁ayrıntılı	-13115
▁İsviçreli	-13116
▁accessible	-13117
▁difficulty	-13118
▁hizmetleri	-13119
▁Avustralyalı	-13120
Lat	-13121
oko	-13122
▁Up	-13123
▁py	-13124
atya	-13125
gili	-13126
ista	-13127
ivri	-13128
okim	-13129
yacı	-13130
ürek	-13131
▁huz	-13132
▁nic	-13133
▁yam	-13134
ağmur	-13135
ivity	-13136
▁Feth	-13137
▁iron	-13138
▁tabl	-13139
diller	-13140
phabet	-13141
strong	-13142
üğünde	-13143
▁Grand	-13144
▁Sinan	-13145
▁akars	-13146
▁dokun	-13147
▁maybe	-13148
▁nodes	-13149
▁sahib	-13150
▁sales	-13151
▁smoke	-13152
▁ölçüm	-13153
▁İşlet	-13154
▁Lizbon	-13155
▁aittir	-13156
▁alınır	-13157
▁behave	-13158
▁kümesi	-13159
▁lookup	-13160
▁missed	-13161
▁oturdu	-13162
▁zordur	-13163
▁zorund	-13164
▁Okyanus	-13165
▁alanına	-13166
▁beşinci	-13167
▁değişen	-13168
▁dijital	-13169
▁donanım	-13170
▁kalacak	-13171
▁nuclear	-13172
▁partial	-13173
▁sağlığı	-13174
▁tkinter	-13175
▁Ethernet	-13176
▁argparse	-13177
▁kahraman	-13178
▁tasarımı	-13179
lemektedir	-13180
▁molecules	-13181
▁savaşları	-13182
▁sistemine	-13183
▁bölgesinin	-13184
▁gösterilir	-13185
▁interfaces	-13186
▁Programming	-13187
▁geçmektedir	-13188
▁replacement	-13189
)(	-13190
)=	-13191
}^	-13192
cik	-13193
igr	-13194
pan	-13195
▁',	-13196
▁BM	-13197
▁Gl	-13198
cada	-13199
celi	-13200
ooth	-13201
▁bud	-13202
bound	-13203
ictim	-13204
ocent	-13205
▁Berk	-13206
▁anno	-13207
▁başı	-13208
Simple	-13209
allest	-13210
cılığı	-13211
▁Libya	-13212
▁White	-13213
▁crash	-13214
▁evine	-13215
▁gelip	-13216
▁helps	-13217
▁kavuş	-13218
▁kilit	-13219
▁label	-13220
▁olayı	-13221
▁salon	-13222
laşması	-13223
umption	-13224
▁Kartal	-13225
▁Pierre	-13226
▁advert	-13227
▁başlay	-13228
▁bother	-13229
▁copied	-13230
▁damage	-13231
▁delete	-13232
▁reduce	-13233
▁sergil	-13234
▁servis	-13235
▁update	-13236
▁yaşamı	-13237
▁yoksul	-13238
iliyordu	-13239
▁Anayasa	-13240
▁Bankası	-13241
▁History	-13242
▁central	-13243
▁dropped	-13244
▁gelindi	-13245
▁kuzeyde	-13246
▁schools	-13247
▁suppose	-13248
▁türüdür	-13249
▁şeyleri	-13250
▁attempts	-13251
▁numaralı	-13252
▁oranında	-13253
▁Francisco	-13254
▁etkileşim	-13255
▁ihtiyacın	-13256
▁remaining	-13257
Wikiversity	-13258
▁arithmetic	-13259
▁unexpected	-13260
▁Aristoteles	-13261
▁destination	-13262
▁possibility	-13263
▁installation	-13264
EM	-13265
öm	-13266
Mut	-13267
UTF	-13268
aga	-13269
eal	-13270
ekt	-13271
zen	-13272
▁du	-13273
▁{\	-13274
User	-13275
ario	-13276
oğuk	-13277
urta	-13278
çeve	-13279
ğday	-13280
▁Are	-13281
▁Keş	-13282
▁pet	-13283
DEBUG	-13284
abeth	-13285
ardin	-13286
dific	-13287
ensus	-13288
gular	-13289
iskop	-13290
named	-13291
spect	-13292
▁Baba	-13293
▁Lord	-13294
▁Mode	-13295
▁Pack	-13296
▁ekip	-13297
bridge	-13298
edelta	-13299
eşitli	-13300
stream	-13301
values	-13302
▁algıl	-13303
▁hayır	-13304
Mapping	-13305
bilgisi	-13306
ileceği	-13307
▁akıllı	-13308
▁fikrim	-13309
▁kapsar	-13310
▁komple	-13311
▁orkest	-13312
▁reader	-13313
▁sooner	-13314
▁Silahlı	-13315
▁aspects	-13316
▁dikkate	-13317
▁staying	-13318
▁süreçte	-13319
▁tanıştı	-13320
bytearray	-13321
▁Demokrat	-13322
▁Mathemat	-13323
▁debugger	-13324
▁lezbiyen	-13325
▁occasion	-13326
▁reported	-13327
▁ağırlıklı	-13328
▁bunlardan	-13329
▁classical	-13330
▁discussed	-13331
▁güvenilir	-13332
▁kıyısında	-13333
▁semantics	-13334
▁succeeded	-13335
▁yoğunluğu	-13336
▁subprocess	-13337
▁Trabzonspor	-13338
▁certificate	-13339
▁gelindiğinde	-13340
▁istemediğini	-13341
▁kullanıldığı	-13342
▁uygulamaları	-13343
}_	-13344
şı	-13345
==|	-13346
dön	-13347
ocr	-13348
ria	-13349
asıt	-13350
edik	-13351
onds	-13352
ston	-13353
▁Bob	-13354
▁Bus	-13355
▁Ceb	-13356
▁Gab	-13357
▁Loc	-13358
▁Old	-13359
▁TLS	-13360
▁Vil	-13361
▁bow	-13362
▁orb	-13363
▁rat	-13364
▁veh	-13365
Start	-13366
ernel	-13367
ladım	-13368
osity	-13369
peten	-13370
uming	-13371
yaman	-13372
▁Amas	-13373
▁uyan	-13374
▁weap	-13375
▁yard	-13376
Onunla	-13377
eliler	-13378
iliğin	-13379
lation	-13380
▁Group	-13381
▁North	-13382
▁Uygul	-13383
▁Young	-13384
▁beğen	-13385
▁compr	-13386
▁dance	-13387
▁miras	-13388
▁proje	-13389
▁yours	-13390
▁İsmet	-13391
Without	-13392
mutable	-13393
reating	-13394
▁Bölümü	-13395
▁Devrim	-13396
▁boşluk	-13397
▁formül	-13398
▁kalmış	-13399
▁kurtul	-13400
▁mirror	-13401
▁tanımı	-13402
▁vektör	-13403
operator	-13404
unittest	-13405
▁Western	-13406
▁binding	-13407
▁getiren	-13408
▁konuşul	-13409
▁meclisi	-13410
▁belirsiz	-13411
▁majority	-13412
▁referred	-13413
▁ailesinin	-13414
▁bilgileri	-13415
▁canlandır	-13416
▁excellent	-13417
▁hayvanlar	-13418
▁increased	-13419
▁mountains	-13420
▁tehlikeli	-13421
▁İspanyolca	-13422
▁antibiyotik	-13423
Em	-13424
nt	-13425
wa	-13426
neg	-13427
üşü	-13428
İyi	-13429
şap	-13430
Arap	-13431
fere	-13432
holm	-13433
odik	-13434
orta	-13435
ufac	-13436
urlu	-13437
▁Equ	-13438
▁Koz	-13439
▁Sum	-13440
▁ırk	-13441
▁Dört	-13442
▁Link	-13443
▁Oğuz	-13444
▁Sult	-13445
▁Thus	-13446
▁flex	-13447
▁gent	-13448
▁lake	-13449
▁plak	-13450
▁tsun	-13451
Doktor	-13452
iguous	-13453
locale	-13454
▁Bakır	-13455
▁Radyo	-13456
▁initi	-13457
▁robot	-13458
▁suite	-13459
command	-13460
lanarak	-13461
modules	-13462
outines	-13463
▁Africa	-13464
▁Balkan	-13465
▁agreed	-13466
▁models	-13467
▁parayı	-13468
▁ziyade	-13469
▁Antalya	-13470
▁Demirel	-13471
▁OpenSSL	-13472
▁Vietnam	-13473
▁dağıtım	-13474
▁dynamic	-13475
▁gelmesi	-13476
▁Kafkasya	-13477
▁Türkçeye	-13478
▁convince	-13479
▁hükümdar	-13480
▁karşılan	-13481
▁nesneler	-13482
▁nesnenin	-13483
▁Implement	-13484
▁dependent	-13485
▁influence	-13486
▁istediğim	-13487
▁işlemleri	-13488
▁Britanyalı	-13489
▁yayınlandı	-13490
▁farklılıklar	-13491
▁professional	-13492
▁komutasındaki	-13493
zo	-13494
Lib	-13495
ğla	-13496
Part	-13497
ebek	-13498
elve	-13499
rali	-13500
rest	-13501
vous	-13502
ılaş	-13503
ılıç	-13504
▁Tcl	-13505
▁lak	-13506
Their	-13507
email	-13508
itmet	-13509
▁Code	-13510
▁Eser	-13511
▁Name	-13512
▁akın	-13513
▁atıf	-13514
▁örne	-13515
ashion	-13516
cileri	-13517
isyonu	-13518
ournal	-13519
▁Mimar	-13520
▁Names	-13521
▁Nauru	-13522
▁belki	-13523
▁cheap	-13524
▁climb	-13525
▁finds	-13526
▁hapis	-13527
▁opera	-13528
▁owner	-13529
▁threw	-13530
complex	-13531
include	-13532
▁Elazığ	-13533
▁Farabi	-13534
▁Viyana	-13535
▁colors	-13536
▁dizisi	-13537
▁effici	-13538
▁hayran	-13539
▁olağan	-13540
▁season	-13541
▁verdim	-13542
▁writes	-13543
▁zorluk	-13544
▁Cephesi	-13545
▁College	-13546
▁Karayip	-13547
▁Trablus	-13548
▁içinden	-13549
▁katılan	-13550
▁kuantum	-13551
▁sayının	-13552
▁siyasal	-13553
▁theater	-13554
▁yazmaya	-13555
▁Elektrik	-13556
▁Standard	-13557
▁careless	-13558
▁geçirmek	-13559
▁hierarch	-13560
▁isimleri	-13561
▁olacağım	-13562
▁symbolic	-13563
▁tanınmış	-13564
▁Akademisi	-13565
▁Nietzsche	-13566
▁calculate	-13567
▁executing	-13568
▁göstermek	-13569
▁interview	-13570
▁kitabında	-13571
▁sistemini	-13572
▁wonderful	-13573
▁çıkarılan	-13574
amayacağını	-13575
▁indicating	-13576
▁kadınların	-13577
▁yardımıyla	-13578
▁Engineering	-13579
âl	-13580
İz	-13581
dst	-13582
kal	-13583
lon	-13584
oop	-13585
▁>=	-13586
..."	-13587
AISE	-13588
Hang	-13589
abol	-13590
anti	-13591
eski	-13592
haba	-13593
marş	-13594
post	-13595
▁Haf	-13596
▁Jes	-13597
▁Sor	-13598
▁Tab	-13599
▁cum	-13600
▁eşy	-13601
▁nef	-13602
▁tec	-13603
acity	-13604
▁Only	-13605
▁bird	-13606
▁crim	-13607
▁darb	-13608
▁gift	-13609
▁rütb	-13610
▁Çarş	-13611
▁Çayı	-13612
▁Buddh	-13613
▁Struc	-13614
▁backs	-13615
▁büyüy	-13616
▁doğan	-13617
▁eksen	-13618
▁ended	-13619
▁femin	-13620
▁liber	-13621
▁olsay	-13622
▁proof	-13623
▁shock	-13624
▁çalgı	-13625
essment	-13626
▁Felsef	-13627
▁anlama	-13628
▁celebr	-13629
▁doğuda	-13630
▁mahkûm	-13631
▁mesafe	-13632
▁salary	-13633
▁sözlük	-13634
▁çıkmış	-13635
anakkale	-13636
▁isimler	-13637
▁showing	-13638
▁simplif	-13639
▁sıralam	-13640
▁Üsküdar	-13641
eleneksel	-13642
▁Ekonomik	-13643
▁Kütüphan	-13644
▁toplumun	-13645
▁Bangladeş	-13646
▁Müdürlüğü	-13647
▁Sosyalist	-13648
▁iteration	-13649
▁Konstantin	-13650
▁olabileceği	-13651
BC	-13652
bl	-13653
ən	-13654
Fil	-13655
GIL	-13656
IDS	-13657
Yaz	-13658
]".	-13659
▁FC	-13660
▁Ke	-13661
▁Od	-13662
▁Ve	-13663
▁rö	-13664
Also	-13665
Data	-13666
Such	-13667
aire	-13668
dans	-13669
diki	-13670
inom	-13671
itap	-13672
liye	-13673
lues	-13674
oned	-13675
real	-13676
temp	-13677
ünce	-13678
▁Ram	-13679
▁Sus	-13680
▁cli	-13681
▁zip	-13682
Kuzey	-13683
ifies	-13684
lantı	-13685
linik	-13686
▁Pitt	-13687
▁Sing	-13688
▁dalı	-13689
▁huge	-13690
▁soft	-13691
dından	-13692
edDict	-13693
▁alçak	-13694
▁apple	-13695
▁ağacı	-13696
▁sides	-13697
▁theor	-13698
▁vücud	-13699
aksiyon	-13700
content	-13701
malısın	-13702
çilerin	-13703
▁Street	-13704
▁frames	-13705
▁kurmak	-13706
▁museum	-13707
▁okumak	-13708
▁remark	-13709
▁rezerv	-13710
▁sağlan	-13711
▁tongue	-13712
Birleşik	-13713
lamaları	-13714
▁acceler	-13715
▁alcohol	-13716
▁azından	-13717
▁destruc	-13718
▁forgive	-13719
▁mekanik	-13720
▁nesnesi	-13721
▁prepare	-13722
▁rivayet	-13723
▁öğrendi	-13724
attribute	-13725
▁alınarak	-13726
▁ayakkabı	-13727
▁bağlayan	-13728
▁dağılımı	-13729
▁infinite	-13730
▁terrible	-13731
▁gittiğini	-13732
▁sistemler	-13733
▁appearance	-13734
▁merkezidir	-13735
▁Development	-13736
▁connections	-13737
▁görülebilir	-13738
▁kaynaklanan	-13739
Aş	-13740
Doğ	-13741
boş	-13742
üye	-13743
şif	-13744
inet	-13745
lers	-13746
merk	-13747
▁Hun	-13748
▁anx	-13749
▁yes	-13750
▁Çay	-13751
andık	-13752
ensis	-13753
raise	-13754
sunuz	-13755
üsüne	-13756
ğiyle	-13757
▁Aile	-13758
▁Bell	-13759
▁Kamp	-13760
▁Pale	-13761
▁dolu	-13762
▁emir	-13763
▁küme	-13764
▁rely	-13765
▁ucuz	-13766
▁wake	-13767
Cookie	-13768
ctypes	-13769
iltins	-13770
lineno	-13771
oughly	-13772
ridden	-13773
▁audio	-13774
▁baktı	-13775
▁düğüm	-13776
▁izler	-13777
▁kapan	-13778
▁oblig	-13779
▁sakın	-13780
▁shift	-13781
▁stock	-13782
▁yönde	-13783
Generic	-13784
▁Church	-13785
▁Planck	-13786
▁ctypes	-13787
▁forced	-13788
▁observ	-13789
▁olumlu	-13790
▁parmak	-13791
▁pocket	-13792
▁singer	-13793
▁tavsiy	-13794
▁worker	-13795
▁yansıt	-13796
▁Because	-13797
▁assumed	-13798
▁azınlık	-13799
▁bilgisi	-13800
▁güçleri	-13801
▁Aleksand	-13802
▁Standart	-13803
▁Yönetmen	-13804
▁affected	-13805
▁alfabesi	-13806
▁controls	-13807
▁değilsin	-13808
▁gereksin	-13809
▁hatırlay	-13810
▁metadata	-13811
▁produces	-13812
▁Gürcistan	-13813
▁Kastamonu	-13814
▁equations	-13815
▁processed	-13816
▁temporary	-13817
▁yazmıştır	-13818
▁biliyordum	-13819
▁popülasyon	-13820
▁çatışmalar	-13821
▁implementing	-13822
Sc	-13823
Tok	-13824
luğ	-13825
▁Tu	-13826
▁öt	-13827
caya	-13828
dest	-13829
etin	-13830
omal	-13831
rial	-13832
yani	-13833
▁Ray	-13834
▁cit	-13835
▁god	-13836
▁ked	-13837
▁wik	-13838
▁çam	-13839
Group	-13840
itely	-13841
urken	-13842
urlar	-13843
▁Once	-13844
▁Sarı	-13845
▁axis	-13846
▁bina	-13847
▁boat	-13848
▁hass	-13849
▁hâle	-13850
▁pipe	-13851
▁plaj	-13852
▁poly	-13853
▁slip	-13854
▁ılım	-13855
ğimizi	-13856
▁Gürcü	-13857
▁Jones	-13858
▁Scott	-13859
▁Where	-13860
▁costs	-13861
▁divor	-13862
▁etmel	-13863
▁rahip	-13864
▁uygar	-13865
▁uğrat	-13866
▁kilise	-13867
▁olurdu	-13868
▁signed	-13869
▁sports	-13870
▁sürümü	-13871
▁turnuv	-13872
▁uğradı	-13873
TestCase	-13874
alarıyla	-13875
ilosophy	-13876
▁Satranç	-13877
▁anlamak	-13878
▁maliyet	-13879
▁records	-13880
▁scripts	-13881
▁signals	-13882
▁Türkçede	-13883
▁görevini	-13884
▁olmaktan	-13885
▁yaparken	-13886
connection	-13887
▁Therefore	-13888
▁protocols	-13889
▁seriously	-13890
▁yaygındır	-13891
▁Previously	-13892
▁uygulaması	-13893
▁Federasyonu	-13894
▁+-------------+	-13895
*'	-13896
CC	-13897
HO	-13898
bs	-13899
wd	-13900
Inc	-13901
Mer	-13902
sur	-13903
uly	-13904
zya	-13905
Char	-13906
Free	-13907
ians	-13908
lets	-13909
that	-13910
walk	-13911
▁Dig	-13912
▁eth	-13913
▁lad	-13914
▁vit	-13915
▁ölü	-13916
abilm	-13917
aspor	-13918
final	-13919
ikast	-13920
makam	-13921
thern	-13922
▁Kays	-13923
▁Make	-13924
▁Sony	-13925
▁Tanz	-13926
▁salg	-13927
▁verg	-13928
future	-13929
lüğünü	-13930
strict	-13931
▁April	-13932
▁aygıt	-13933
▁besin	-13934
▁cream	-13935
▁inanc	-13936
▁maddi	-13937
▁ordin	-13938
Almanya	-13939
ahattin	-13940
ologlar	-13941
▁deneme	-13942
▁gemisi	-13943
▁harcam	-13944
▁marked	-13945
▁oluyor	-13946
▁orient	-13947
▁oynadı	-13948
▁pickle	-13949
▁stands	-13950
▁Şehrin	-13951
Optional	-13952
istribut	-13953
▁Wilhelm	-13954
▁anlaşma	-13955
▁healthy	-13956
▁plastik	-13957
▁yapısal	-13958
ictionary	-13959
▁election	-13960
▁schedule	-13961
▁Balıkesir	-13962
▁Tarantino	-13963
▁tamamladı	-13964
▁katkısıyla	-13965
▁ülkelerden	-13966
=(	-13967
▁É	-13968
env	-13969
mik	-13970
tis	-13971
▁Bi	-13972
Exit	-13973
Next	-13974
asöz	-13975
cred	-13976
ebra	-13977
ekim	-13978
kett	-13979
remi	-13980
roid	-13981
▁Fen	-13982
▁Haç	-13983
▁Mex	-13984
▁Pos	-13985
▁Süm	-13986
▁Tut	-13987
▁UTC	-13988
▁fen	-13989
▁çak	-13990
▁öyk	-13991
ening	-13992
lands	-13993
osfer	-13994
▁Good	-13995
▁MIME	-13996
▁Over	-13997
▁dahi	-13998
▁dogs	-13999
▁rang	-14000
düğünü	-14001
econds	-14002
lıktan	-14003
maktır	-14004
▁Stock	-14005
▁bakan	-14006
▁becer	-14007
▁deleg	-14008
▁feels	-14009
▁fosil	-14010
▁haric	-14011
▁nehri	-14012
▁oldum	-14013
▁tamir	-14014
▁teles	-14015
▁turns	-14016
▁worst	-14017
changed	-14018
enderes	-14019
ologies	-14020
portion	-14021
▁Boğazı	-14022
▁Kaynak	-14023
▁Visual	-14024
▁analog	-14025
▁beklen	-14026
▁chosen	-14027
▁editor	-14028
▁instit	-14029
▁teorik	-14030
▁uydusu	-14031
▁cession	-14032
▁constit	-14033
▁fishing	-14034
▁formula	-14035
▁kişidir	-14036
▁malzeme	-14037
▁modific	-14038
▁seçilen	-14039
▁yararlı	-14040
▁yenilen	-14041
▁Kongresi	-14042
▁extended	-14043
▁fighting	-14044
▁grupları	-14045
▁metropol	-14046
▁notation	-14047
▁religious	-14048
▁yapıldığı	-14049
▁yüksektir	-14050
▁Arjantinli	-14051
▁birlikleri	-14052
▁parçasıdır	-14053
▁başlanmıştır	-14054
▁geliştirilen	-14055
▁Üniversitesinde	-14056
DB	-14057
Bar	-14058
EEE	-14059
Lef	-14060
düş	-14061
mec	-14062
uki	-14063
ülf	-14064
▁\\	-14065
agic	-14066
elle	-14067
otle	-14068
tıcı	-14069
▁Beh	-14070
▁Bes	-14071
▁Dik	-14072
▁Fab	-14073
▁Had	-14074
▁Ruh	-14075
▁hex	-14076
▁kül	-14077
blank	-14078
ınızı	-14079
▁Arke	-14080
▁Data	-14081
▁Kant	-14082
▁eats	-14083
▁golf	-14084
▁grab	-14085
▁meal	-14086
Having	-14087
amadım	-14088
ership	-14089
istent	-14090
iyoruz	-14091
likely	-14092
tzinfo	-14093
usunun	-14094
▁Hindu	-14095
▁adapt	-14096
▁adult	-14097
▁imkân	-14098
▁kulak	-14099
▁tuttu	-14100
▁virüs	-14101
▁yazma	-14102
▁yazıt	-14103
TPFLAGS	-14104
Tatoeba	-14105
lesinin	-14106
▁Canada	-14107
▁baştan	-14108
▁geleni	-14109
▁growth	-14110
▁harmon	-14111
▁kimlik	-14112
▁savaşa	-14113
▁tanesi	-14114
▁volkan	-14115
▁illegal	-14116
▁inceler	-14117
▁partisi	-14118
▁savaşın	-14119
▁sorunun	-14120
Yesterday	-14121
▁söylemem	-14122
▁thoughts	-14123
SSLContext	-14124
▁muhalefet	-14125
▁öğrencisi	-14126
▁seçimlerde	-14127
)-	-14128
UI	-14129
aa	-14130
Dir	-14131
EFA	-14132
nia	-14133
och	-14134
she	-14135
utc	-14136
▁öp	-14137
aded	-14138
ebru	-14139
hard	-14140
mond	-14141
vard	-14142
▁Hil	-14143
Babam	-14144
erkür	-14145
while	-14146
xygen	-14147
▁Tren	-14148
▁Zaza	-14149
▁bant	-14150
▁exha	-14151
▁pure	-14152
Ankara	-14153
Türkçe	-14154
adadır	-14155
afizik	-14156
amıyor	-14157
effect	-14158
engers	-14159
itable	-14160
▁Lenin	-14161
▁March	-14162
▁Orhan	-14163
▁baraj	-14164
▁esnek	-14165
▁estim	-14166
▁iktis	-14167
▁oynan	-14168
▁query	-14169
▁seyir	-14170
▁öngör	-14171
▁özgün	-14172
▁Erivan	-14173
▁anılır	-14174
▁candid	-14175
▁cities	-14176
▁cursor	-14177
ülebilir	-14178
▁Caddesi	-14179
▁elinden	-14180
▁hukukçu	-14181
▁mutfağı	-14182
▁yıldızı	-14183
karahisar	-14184
▁electron	-14185
▁collected	-14186
▁identical	-14187
▁örnekleri	-14188
▁statistics	-14189
▁Kaliforniya	-14190
▁alanlarında	-14191
▁distinguish	-14192
▁Şampiyonası	-14193
▁içermektedir	-14194
Az	-14195
azy	-14196
law	-14197
sıf	-14198
Comm	-14199
adağ	-14200
amba	-14201
chor	-14202
uary	-14203
ulus	-14204
vana	-14205
▁Cup	-14206
▁GIL	-14207
▁Hid	-14208
▁Kış	-14209
▁Sed	-14210
▁inş	-14211
arruf	-14212
isted	-14213
ürken	-14214
ıyaka	-14215
▁Alev	-14216
▁Berg	-14217
▁Nove	-14218
▁heap	-14219
▁zekâ	-14220
Number	-14221
Reader	-14222
ilenin	-14223
toplam	-14224
▁Andre	-14225
▁Güzel	-14226
▁Kurul	-14227
▁Topic	-14228
▁akrab	-14229
▁amino	-14230
▁fifty	-14231
▁tatlı	-14232
▁yuvar	-14233
▁Mirası	-14234
▁antrop	-14235
▁detect	-14236
▁edileb	-14237
▁grubun	-14238
▁ibadet	-14239
▁içerik	-14240
▁meydan	-14241
▁yapıcı	-14242
▁çıkmak	-14243
▁örtüsü	-14244
External	-14245
ceptions	-14246
instance	-14247
▁avantaj	-14248
▁bayrağı	-14249
▁biggest	-14250
▁cesaret	-14251
▁connect	-14252
▁dilinin	-14253
▁etkiley	-14254
▁gibidir	-14255
▁gönüllü	-14256
▁imports	-14257
▁subsequ	-14258
▁İskoçya	-14259
▁Adıyaman	-14260
▁believes	-14261
▁distinct	-14262
▁imzaladı	-14263
▁oyunları	-14264
▁piyanist	-14265
▁yapısını	-14266
▁örnekler	-14267
▁continued	-14268
▁imzalandı	-14269
▁kesiminde	-14270
▁ülkesidir	-14271
▁Portekizli	-14272
▁alınmıştır	-14273
▁atmosphere	-14274
▁describing	-14275
▁görünmüyor	-14276
▁literature	-14277
▁overridden	-14278
▁yaşadığını	-14279
▁destekleyen	-14280
▁organizasyon	-14281
***	-14282
Bul	-14283
NET	-14284
bec	-14285
irm	-14286
nab	-14287
üle	-14288
▁*"	-14289
▁Ec	-14290
▁US	-14291
amız	-14292
cing	-14293
eved	-14294
graf	-14295
işle	-14296
ober	-14297
riel	-14298
urnu	-14299
▁Ast	-14300
▁Lüb	-14301
▁Nil	-14302
▁Oct	-14303
▁Pis	-14304
▁dür	-14305
▁fem	-14306
▁lev	-14307
▁pix	-14308
ishes	-14309
ocrat	-14310
örler	-14311
▁Text	-14312
▁Work	-14313
▁cash	-14314
▁mese	-14315
▁puan	-14316
▁tabi	-14317
▁thin	-14318
▁Şiir	-14319
coding	-14320
encode	-14321
header	-14322
output	-14323
▁Frame	-14324
▁Murad	-14325
▁doğur	-14326
▁düşüş	-14327
▁suçlu	-14328
▁timer	-14329
English	-14330
▁Mahmud	-14331
▁drinks	-14332
▁emphas	-14333
▁houses	-14334
▁macros	-14335
▁sentez	-14336
▁öğrend	-14337
▁İranlı	-14338
Kaynakça	-14339
standing	-14340
symlinks	-14341
warnings	-14342
▁climate	-14343
▁dalıdır	-14344
▁editing	-14345
▁eşittir	-14346
▁holiday	-14347
▁kaldığı	-14348
▁rekabet	-14349
▁subtype	-14350
▁yazılır	-14351
doğusunda	-14352
▁Afrikalı	-14353
▁Leonardo	-14354
▁discover	-14355
▁halkının	-14356
▁nispeten	-14357
▁priority	-14358
▁trailing	-14359
▁unlikely	-14360
▁İnternet	-14361
Everything	-14362
Initialize	-14363
▁Savaşları	-14364
▁biçiminde	-14365
▁component	-14366
▁esnasında	-14367
▁farklıdır	-14368
▁güçlendir	-14369
▁planlıyor	-14370
▁ihtiyacımız	-14371
▁individuals	-14372
▁kullanılmaya	-14373
▁successfully	-14374
▁topraklarının	-14375
CK	-14376
'")	-14377
ABC	-14378
Rep	-14379
TLS	-14380
sup	-14381
uro	-14382
uto	-14383
▁XP	-14384
luğa	-14385
make	-14386
mber	-14387
nalı	-14388
true	-14389
▁Ern	-14390
▁Num	-14391
▁Tro	-14392
▁joy	-14393
▁msg	-14394
▁niş	-14395
diven	-14396
içesi	-14397
liydi	-14398
▁Anal	-14399
▁Astr	-14400
▁Kısa	-14401
▁blog	-14402
icated	-14403
ipment	-14404
suzluk	-14405
writer	-14406
▁artar	-14407
▁bahar	-14408
▁deser	-14409
▁eline	-14410
▁hediy	-14411
▁kalem	-14412
▁medya	-14413
▁prove	-14414
▁sines	-14415
Seninle	-14416
ebruary	-14417
ilmişti	-14418
okrates	-14419
▁Alfred	-14420
▁Toplam	-14421
▁Uçakla	-14422
▁bigger	-14423
▁ilinde	-14424
▁romanı	-14425
▁üstüne	-14426
levizyon	-14427
▁aliases	-14428
▁geçtiği	-14429
▁updated	-14430
▁welcome	-14431
▁challeng	-14432
▁football	-14433
▁görünümü	-14434
▁identify	-14435
▁interact	-14436
▁kapsayan	-14437
▁phenomen	-14438
▁translat	-14439
▁yılların	-14440
▁Venezuela	-14441
▁askerleri	-14442
▁construct	-14443
▁demokrasi	-14444
▁edeceğini	-14445
▁policeman	-14446
▁published	-14447
▁karşılaştı	-14448
▁oluşmuştur	-14449
▁appointment	-14450
▁seçilmiştir	-14451
▁imparatorluk	-14452
Mu	-14453
jo	-14454
DTÜ	-14455
Sat	-14456
cls	-14457
yaz	-14458
▁"+	-14459
▁FK	-14460
ague	-14461
egal	-14462
ersc	-14463
stop	-14464
▁Arş	-14465
▁Güç	-14466
▁cig	-14467
▁hel	-14468
▁lok	-14469
Parse	-14470
ersek	-14471
uplic	-14472
ğidir	-14473
▁Expl	-14474
▁Love	-14475
▁alıp	-14476
▁amaz	-14477
▁esir	-14478
▁hall	-14479
aching	-14480
adyumu	-14481
capita	-14482
lected	-14483
▁Georg	-14484
▁Green	-14485
▁Kamer	-14486
▁Kyoto	-14487
▁Polit	-14488
▁cephe	-14489
▁dilde	-14490
▁hâlen	-14491
▁içerm	-14492
▁zemin	-14493
Instead	-14494
itoring	-14495
lendiği	-14496
▁Hizmet	-14497
▁cancer	-14498
▁kırsal	-14499
▁modeli	-14500
▁monarş	-14501
▁çevrim	-14502
malarına	-14503
▁Malatya	-14504
▁yaralan	-14505
▁relation	-14506
▁şehirdir	-14507
▁başbakanı	-14508
▁medeniyet	-14509
▁mentioned	-14510
▁verebilir	-14511
▁yöntemler	-14512
trightarrow	-14513
▁Filipinler	-14514
▁ulaşmıştır	-14515
hid	-14516
sis	-14517
▁Eb	-14518
Orta	-14519
ails	-14520
unar	-14521
üton	-14522
ğdır	-14523
▁Ask	-14524
▁Jer	-14525
▁sla	-14526
▁sle	-14527
▁tro	-14528
-----	-14529
ermat	-14530
ledir	-14531
İslam	-14532
▁Bart	-14533
▁Ruby	-14534
▁Sina	-14535
▁acid	-14536
▁hook	-14537
▁null	-14538
▁pray	-14539
▁sorm	-14540
locals	-14541
ımızın	-14542
▁Alice	-14543
▁Gates	-14544
▁Kulüb	-14545
▁blind	-14546
▁orbit	-14547
▁thick	-14548
masıdır	-14549
▁Hayvan	-14550
▁Studio	-14551
▁actors	-14552
▁anayas	-14553
▁kişiye	-14554
▁narrow	-14555
▁qualif	-14556
▁taşıma	-14557
▁victim	-14558
▁visual	-14559
▁yangın	-14560
▁zincir	-14561
dansatör	-14562
▁Pasifik	-14563
▁balance	-14564
▁chapter	-14565
▁cinayet	-14566
▁deleted	-14567
▁sayısal	-14568
▁takımın	-14569
ibilities	-14570
▁Saturday	-14571
▁anlaşmaz	-14572
▁attitude	-14573
▁kurallar	-14574
▁yargılan	-14575
▁ülkedeki	-14576
▁konuşuyor	-14577
▁moleküler	-14578
▁satisfied	-14579
▁başkanları	-14580
▁gezegenler	-14581
▁resolution	-14582
▁comfortable	-14583
▁düşündüğünü	-14584
▁gerçekleşir	-14585
▁olmadığından	-14586
FOR	-14587
Hol	-14588
Loc	-14589
Mus	-14590
two	-14591
uon	-14592
war	-14593
yön	-14594
▁CO	-14595
▁Si	-14596
▁iv	-14597
▁si	-14598
▁Ür	-14599
ayol	-14600
dent	-14601
http	-14602
otam	-14603
oved	-14604
ovie	-14605
sock	-14606
uate	-14607
▁Ros	-14608
▁Sak	-14609
▁ayn	-14610
▁kaş	-14611
▁müs	-14612
▁tör	-14613
▁şap	-14614
ATION	-14615
arter	-14616
leman	-14617
ortal	-14618
▁Euro	-14619
▁June	-14620
▁defe	-14621
▁kare	-14622
▁neut	-14623
▁otob	-14624
▁poet	-14625
▁özür	-14626
▁İslâ	-14627
Custom	-14628
IOBase	-14629
PyLong	-14630
turing	-14631
▁Resim	-14632
▁Start	-14633
▁Tatar	-14634
▁alkol	-14635
▁eşlik	-14636
▁kaybı	-14637
▁Çince	-14638
example	-14639
sterdam	-14640
▁Meksik	-14641
▁açılış	-14642
▁counts	-14643
▁işleri	-14644
▁kaleme	-14645
▁müşter	-14646
▁nüfusa	-14647
▁ortamı	-14648
▁constra	-14649
▁convinc	-14650
▁grammar	-14651
▁güreşçi	-14652
▁istisna	-14653
▁kurduğu	-14654
▁kıyasla	-14655
▁nervous	-14656
▁players	-14657
▁singing	-14658
▁yakalan	-14659
▁yumurta	-14660
▁Menderes	-14661
▁carrying	-14662
▁erkekler	-14663
▁template	-14664
▁turistik	-14665
▁evolution	-14666
▁görebilir	-14667
▁peygamber	-14668
▁presented	-14669
▁separator	-14670
▁yapabilir	-14671
▁yılındaki	-14672
▁Çanakkale	-14673
▁Demokratik	-14674
▁gönderildi	-14675
▁kullanmaya	-14676
▁çevresindeki	-14677
Leftrightarrow	-14678
'}	-14679
)}	-14680
=-	-14681
>"	-14682
MO	-14683
je	-14684
Ken	-14685
RED	-14686
iso	-14687
pid	-14688
▁/)	-14689
▁Je	-14690
▁ış	-14691
amuk	-14692
oger	-14693
otal	-14694
pars	-14695
plak	-14696
tına	-14697
▁Ark	-14698
▁Che	-14699
▁Kiş	-14700
▁Mağ	-14701
▁dra	-14702
▁wal	-14703
Match	-14704
Polis	-14705
amvay	-14706
andin	-14707
ennon	-14708
eterm	-14709
mekle	-14710
memek	-14711
▁Gine	-14712
▁Stan	-14713
▁Turg	-14714
▁hide	-14715
▁iyon	-14716
▁skip	-14717
abling	-14718
gcolor	-14719
tikten	-14720
turtle	-14721
▁Bölüm	-14722
▁Hitit	-14723
▁aylık	-14724
▁decom	-14725
▁fakir	-14726
▁stuck	-14727
▁temas	-14728
▁terör	-14729
▁truck	-14730
▁yürüm	-14731
getattr	-14732
lemeler	-14733
related	-14734
▁Create	-14735
▁Gregor	-14736
▁Tevrat	-14737
▁accoun	-14738
▁duruma	-14739
▁gözden	-14740
▁kaldım	-14741
▁lawyer	-14742
▁safely	-14743
▁struct	-14744
▁yazmak	-14745
▁çarpış	-14746
▁İlçede	-14747
iterator	-14748
memiştir	-14749
▁dağılım	-14750
▁kalıtım	-14751
▁karasal	-14752
▁nereden	-14753
▁oynanan	-14754
▁sıralan	-14755
▁Examples	-14756
▁alphabet	-14757
▁bilgisay	-14758
▁borrowed	-14759
▁gelişimi	-14760
▁ilişkisi	-14761
▁kimyager	-14762
▁obtained	-14763
▁temelini	-14764
▁Hollywood	-14765
▁committee	-14766
▁ilçesinin	-14767
▁olmasının	-14768
▁parçaları	-14769
leştirilmiş	-14770
▁Department	-14771
▁arkeolojik	-14772
▁definitely	-14773
▁generators	-14774
▁sufficient	-14775
▁yöntemleri	-14776
▁bilmiyordum	-14777
OF	-14778
cd	-14779
ić	-14780
kz	-14781
ão	-14782
ıh	-14783
Hal	-14784
avy	-14785
jan	-14786
lie	-14787
âye	-14788
üyü	-14789
▁Eg	-14790
ahit	-14791
embe	-14792
eyim	-14793
tage	-14794
▁Arm	-14795
▁sam	-14796
after	-14797
arklı	-14798
ektör	-14799
plete	-14800
▁JSON	-14801
▁Mont	-14802
▁ağac	-14803
▁komp	-14804
▁nose	-14805
▁olgu	-14806
▁reve	-14807
▁shad	-14808
Birkaç	-14809
ighter	-14810
memory	-14811
normal	-14812
▁Asker	-14813
▁Napol	-14814
▁Yaşam	-14815
▁asser	-14816
▁bacak	-14817
▁kaplı	-14818
▁okudu	-14819
▁reads	-14820
▁tutum	-14821
▁vakit	-14822
▁şehre	-14823
Network	-14824
Örneğin	-14825
▁Bundan	-14826
▁Friday	-14827
▁Yalova	-14828
▁bodies	-14829
▁circle	-14830
▁direnç	-14831
▁izledi	-14832
▁karısı	-14833
▁kişiyi	-14834
▁leader	-14835
▁meşhur	-14836
▁olmasa	-14837
▁parsed	-14838
▁saptan	-14839
▁schedu	-14840
▁yelken	-14841
▁çarpan	-14842
PyThread	-14843
ıldığını	-14844
▁accused	-14845
▁dealing	-14846
▁manufac	-14847
▁profile	-14848
▁toplama	-14849
▁çevresi	-14850
including	-14851
struction	-14852
▁Metrobüs	-14853
▁allowing	-14854
▁araçları	-14855
▁backward	-14856
▁bilginin	-14857
▁composed	-14858
▁kromozom	-14859
▁materyal	-14860
▁sağlıklı	-14861
▁synchron	-14862
▁şehrinde	-14863
▁framework	-14864
▁oyuncular	-14865
▁yayımladı	-14866
▁collections	-14867
▁yazılmıştır	-14868
Gal	-14869
SQL	-14870
UID	-14871
cül	-14872
ett	-14873
hun	-14874
pus	-14875
sep	-14876
yak	-14877
▁ha	-14878
▁jo	-14879
SION	-14880
aint	-14881
atlı	-14882
etch	-14883
iper	-14884
odor	-14885
ptom	-14886
▁Ath	-14887
▁Tav	-14888
▁akl	-14889
▁süp	-14890
siyon	-14891
uries	-14892
▁July	-14893
▁farm	-14894
▁müze	-14895
▁nötr	-14896
Christ	-14897
iculum	-14898
merkez	-14899
pazarı	-14900
▁Osaka	-14901
▁async	-14902
▁aşkın	-14903
▁codec	-14904
▁dirty	-14905
▁kamer	-14906
▁relax	-14907
▁sarım	-14908
▁slice	-14909
▁tries	-14910
▁çözün	-14911
▁Course	-14912
▁beings	-14913
▁binası	-14914
▁cismin	-14915
▁mental	-14916
▁okulda	-14917
▁repeat	-14918
________	-14919
lığından	-14920
standard	-14921
ılığında	-14922
▁chicken	-14923
▁dergisi	-14924
▁unknown	-14925
▁Üzerine	-14926
ilmesiyle	-14927
▁adamları	-14928
▁defining	-14929
▁durumuna	-14930
▁olayları	-14931
▁ordinary	-14932
▁voleybol	-14933
▁Aşağıdaki	-14934
▁anlamlara	-14935
▁authority	-14936
▁döneminin	-14937
▁yönettiği	-14938
▁başladılar	-14939
▁bünyesinde	-14940
▁kahverengi	-14941
▁Danimarkalı	-14942
▁effectively	-14943
▁gelişmiştir	-14944
▁topraklarına	-14945
multiprocessing	-14946
)*	-14947
ré	-14948
Hep	-14949
RPC	-14950
^{-	-14951
aib	-14952
asy	-14953
gül	-14954
mic	-14955
ğıt	-14956
▁':	-14957
Geor	-14958
asdl	-14959
cağı	-14960
kapı	-14961
kurg	-14962
tegr	-14963
▁Gil	-14964
▁PKK	-14965
▁Ten	-14966
▁bez	-14967
▁tri	-14968
▁çoğ	-14969
aling	-14970
eryem	-14971
icide	-14972
ondur	-14973
onent	-14974
▁Anıt	-14975
▁Hall	-14976
▁Harb	-14977
▁Slav	-14978
▁cool	-14979
▁flor	-14980
▁sözü	-14981
▁özet	-14982
bistan	-14983
client	-14984
cıları	-14985
everal	-14986
ifying	-14987
kinden	-14988
memesi	-14989
update	-14990
▁Apple	-14991
▁Video	-14992
▁Yavuz	-14993
▁ahşap	-14994
▁annoy	-14995
▁cards	-14996
▁edici	-14997
▁pregn	-14998
▁shirt	-14999
▁tarif	-15000
▁tight	-15001
▁ödeme	-15002
▁ısrar	-15003
atively	-15004
▁Kulesi	-15005
▁Simple	-15006
▁Strate	-15007
▁compla	-15008
▁ending	-15009
▁evinde	-15010
▁offers	-15011
▁rüzgar	-15012
▁tanıdı	-15013
▁twelve	-15014
ensional	-15015
readline	-15016
▁ayrılan	-15017
▁ağırlık	-15018
▁doctest	-15019
▁horizon	-15020
▁kampany	-15021
▁karşıya	-15022
▁oksijen	-15023
▁sektörü	-15024
▁uzunluk	-15025
▁vererek	-15026
Everybody	-15027
batısında	-15028
▁açmıştır	-15029
▁displays	-15030
▁families	-15031
vironments	-15032
▁childhood	-15033
▁edebiyatı	-15034
▁ilçesidir	-15035
▁consistent	-15036
▁düzenlendi	-15037
▁gönderilen	-15038
▁getirmiştir	-15039
▁belirtmiştir	-15040
Bl	-15041
kg	-15042
yc	-15043
Hat	-15044
IPv	-15045
Mal	-15046
gey	-15047
vas	-15048
ysa	-15049
▁AK	-15050
▁VI	-15051
()),	-15052
LINE	-15053
Mark	-15054
Saat	-15055
dump	-15056
iyom	-15057
kien	-15058
mama	-15059
nail	-15060
▁Dor	-15061
▁Kül	-15062
▁Mit	-15063
▁peş	-15064
▁Şer	-15065
isons	-15066
iyeli	-15067
oğraf	-15068
urban	-15069
üzyon	-15070
ımıza	-15071
▁UEFA	-15072
▁deng	-15073
▁hali	-15074
▁kurg	-15075
▁rare	-15076
▁tepk	-15077
▁zone	-15078
Though	-15079
ilmeye	-15080
ılıyor	-15081
ısınız	-15082
▁Found	-15083
▁Geliş	-15084
▁Jesus	-15085
▁cells	-15086
▁crowd	-15087
▁forth	-15088
▁optik	-15089
▁purch	-15090
▁smart	-15091
▁sığın	-15092
▁önces	-15093
Another	-15094
Whether	-15095
dipnotu	-15096
eceğine	-15097
▁Koreli	-15098
▁atomic	-15099
▁dilini	-15100
▁ulaşan	-15101
Children	-15102
lamenter	-15103
▁Beatles	-15104
▁Savunma	-15105
▁authent	-15106
▁consult	-15107
▁dinamik	-15108
▁dinozor	-15109
▁direniş	-15110
▁exposed	-15111
▁günleri	-15112
▁izlemek	-15113
▁trigger	-15114
▁çıkarak	-15115
timedelta	-15116
traceback	-15117
▁Solution	-15118
▁belirler	-15119
▁konuları	-15120
▁observed	-15121
▁politics	-15122
▁searched	-15123
▁zamandan	-15124
Bilgisayar	-15125
▁Functions	-15126
▁Karşıyaka	-15127
▁istasyonu	-15128
▁recognize	-15129
▁sonraları	-15130
▁wondering	-15131
▁alanındaki	-15132
▁developing	-15133
▁implicitly	-15134
▁başlangıçta	-15135
▁bulunabilir	-15136
▁parentheses	-15137
▁supermarket	-15138
mm	-15139
ûn	-15140
DOS	-15141
Dış	-15142
Söz	-15143
WAR	-15144
die	-15145
reş	-15146
sey	-15147
tia	-15148
yaş	-15149
▁Mi	-15150
Arab	-15151
Buna	-15152
Oper	-15153
Pool	-15154
ader	-15155
akin	-15156
ataş	-15157
ilty	-15158
raft	-15159
vars	-15160
ınma	-15161
▁anc	-15162
▁bug	-15163
▁sac	-15164
▁tie	-15165
▁tun	-15166
()").	-15167
Linux	-15168
Macar	-15169
idari	-15170
ights	-15171
▁Sant	-15172
▁acil	-15173
▁cami	-15174
▁diff	-15175
▁furn	-15176
▁koyu	-15177
▁merm	-15178
▁sesi	-15179
▁Çift	-15180
▁Şeyh	-15181
Record	-15182
Yardım	-15183
ocracy	-15184
pickle	-15185
portaj	-15186
signal	-15187
sıfatı	-15188
▁Baraj	-15189
▁Karak	-15190
▁Murat	-15191
▁Param	-15192
▁bilen	-15193
▁court	-15194
▁delik	-15195
▁dinin	-15196
▁falls	-15197
▁heyec	-15198
▁mağaz	-15199
▁songs	-15200
▁suyun	-15201
▁teker	-15202
▁çeliş	-15203
▁önemi	-15204
andinav	-15205
ersiniz	-15206
feransı	-15207
▁SQLite	-15208
▁etmedi	-15209
▁iyidir	-15210
▁stores	-15211
▁telaff	-15212
▁teorem	-15213
▁yapıya	-15214
Amerikan	-15215
nowledge	-15216
▁Italian	-15217
▁compile	-15218
▁extract	-15219
▁görüldü	-15220
▁handles	-15221
▁çerçeve	-15222
Iteration	-15223
Otherwise	-15224
demografi	-15225
▁Müttefik	-15226
▁ayrılmış	-15227
▁edilerek	-15228
▁embedded	-15229
▁rational	-15230
▁sayısını	-15231
▁türlerin	-15232
rightarrow	-15233
▁Aristotle	-15234
▁chemistry	-15235
▁insurance	-15236
▁katıldığı	-15237
▁milyondan	-15238
▁sevdiğini	-15239
▁sınıfının	-15240
▁Osmanlılar	-15241
▁olmasından	-15242
▁procedures	-15243
▁yemeğinden	-15244
▁kolaylaştır	-15245
▁çalışmalarına	-15246
Na	-15247
_"	-15248
biç	-15249
don	-15250
hex	-15251
ibr	-15252
uid	-15253
umi	-15254
zan	-15255
▁+=	-15256
Jane	-15257
ayım	-15258
gini	-15259
here	-15260
inen	-15261
lush	-15262
▁Faz	-15263
▁IBM	-15264
▁Kud	-15265
▁Laz	-15266
▁Lor	-15267
▁Neg	-15268
▁Sib	-15269
▁pik	-15270
house	-15271
iğeri	-15272
medik	-15273
▁Hakk	-15274
▁Köyü	-15275
▁acts	-15276
▁plus	-15277
▁spin	-15278
▁spot	-15279
▁wash	-15280
▁ömür	-15281
▁İşçi	-15282
__()".	-15283
curses	-15284
estamp	-15285
filter	-15286
likten	-15287
luğuna	-15288
opotam	-15289
sqlite	-15290
[...]
